#ifndef NN_MODEL_H
#define NN_MODEL_H


unsigned int nn_model_len = 19044;

unsigned int nn_model_label = 7;
unsigned char nn_model[] = {
 0x1c, 0x00, 0x00, 0x00, 0x54, 0x46, 0x4c, 0x33, 0x14, 0x00, 0x20, 0x00,
  0x1c, 0x00, 0x18, 0x00, 0x14, 0x00, 0x10, 0x00, 0x0c, 0x00, 0x00, 0x00,
  0x08, 0x00, 0x04, 0x00, 0x14, 0x00, 0x00, 0x00, 0x1c, 0x00, 0x00, 0x00,
  0x8c, 0x00, 0x00, 0x00, 0xe4, 0x00, 0x00, 0x00, 0x9c, 0x42, 0x00, 0x00,
  0xac, 0x42, 0x00, 0x00, 0x00, 0x4a, 0x00, 0x00, 0x03, 0x00, 0x00, 0x00,
  0x01, 0x00, 0x00, 0x00, 0x10, 0x00, 0x00, 0x00, 0x00, 0x00, 0x0a, 0x00,
  0x10, 0x00, 0x0c, 0x00, 0x08, 0x00, 0x04, 0x00, 0x0a, 0x00, 0x00, 0x00,
  0x0c, 0x00, 0x00, 0x00, 0x1c, 0x00, 0x00, 0x00, 0x38, 0x00, 0x00, 0x00,
  0x0f, 0x00, 0x00, 0x00, 0x73, 0x65, 0x72, 0x76, 0x69, 0x6e, 0x67, 0x5f,
  0x64, 0x65, 0x66, 0x61, 0x75, 0x6c, 0x74, 0x00, 0x01, 0x00, 0x00, 0x00,
  0x04, 0x00, 0x00, 0x00, 0x9c, 0xff, 0xff, 0xff, 0x0d, 0x00, 0x00, 0x00,
  0x04, 0x00, 0x00, 0x00, 0x07, 0x00, 0x00, 0x00, 0x64, 0x65, 0x6e, 0x73,
  0x65, 0x5f, 0x33, 0x00, 0x01, 0x00, 0x00, 0x00, 0x04, 0x00, 0x00, 0x00,
  0x42, 0xbd, 0xff, 0xff, 0x04, 0x00, 0x00, 0x00, 0x07, 0x00, 0x00, 0x00,
  0x69, 0x6e, 0x70, 0x75, 0x74, 0x5f, 0x31, 0x00, 0x02, 0x00, 0x00, 0x00,
  0x34, 0x00, 0x00, 0x00, 0x04, 0x00, 0x00, 0x00, 0xdc, 0xff, 0xff, 0xff,
  0x10, 0x00, 0x00, 0x00, 0x04, 0x00, 0x00, 0x00, 0x13, 0x00, 0x00, 0x00,
  0x43, 0x4f, 0x4e, 0x56, 0x45, 0x52, 0x53, 0x49, 0x4f, 0x4e, 0x5f, 0x4d,
  0x45, 0x54, 0x41, 0x44, 0x41, 0x54, 0x41, 0x00, 0x08, 0x00, 0x0c, 0x00,
  0x08, 0x00, 0x04, 0x00, 0x08, 0x00, 0x00, 0x00, 0x0f, 0x00, 0x00, 0x00,
  0x04, 0x00, 0x00, 0x00, 0x13, 0x00, 0x00, 0x00, 0x6d, 0x69, 0x6e, 0x5f,
  0x72, 0x75, 0x6e, 0x74, 0x69, 0x6d, 0x65, 0x5f, 0x76, 0x65, 0x72, 0x73,
  0x69, 0x6f, 0x6e, 0x00, 0x11, 0x00, 0x00, 0x00, 0xb4, 0x41, 0x00, 0x00,
  0xac, 0x41, 0x00, 0x00, 0x9c, 0x0f, 0x00, 0x00, 0x6c, 0x0f, 0x00, 0x00,
  0x40, 0x0f, 0x00, 0x00, 0xb0, 0x0e, 0x00, 0x00, 0x60, 0x0e, 0x00, 0x00,
  0x50, 0x0c, 0x00, 0x00, 0x40, 0x04, 0x00, 0x00, 0xb0, 0x00, 0x00, 0x00,
  0xa8, 0x00, 0x00, 0x00, 0xa0, 0x00, 0x00, 0x00, 0x98, 0x00, 0x00, 0x00,
  0x90, 0x00, 0x00, 0x00, 0x88, 0x00, 0x00, 0x00, 0x68, 0x00, 0x00, 0x00,
  0x04, 0x00, 0x00, 0x00, 0xfa, 0xbd, 0xff, 0xff, 0x04, 0x00, 0x00, 0x00,
  0x54, 0x00, 0x00, 0x00, 0x0c, 0x00, 0x00, 0x00, 0x08, 0x00, 0x0e, 0x00,
  0x08, 0x00, 0x04, 0x00, 0x08, 0x00, 0x00, 0x00, 0x10, 0x00, 0x00, 0x00,
  0x24, 0x00, 0x00, 0x00, 0x00, 0x00, 0x06, 0x00, 0x08, 0x00, 0x04, 0x00,
  0x06, 0x00, 0x00, 0x00, 0x04, 0x00, 0x00, 0x00, 0x00, 0x00, 0x00, 0x00,
  0x00, 0x00, 0x0a, 0x00, 0x10, 0x00, 0x0c, 0x00, 0x08, 0x00, 0x04, 0x00,
  0x0a, 0x00, 0x00, 0x00, 0x02, 0x00, 0x00, 0x00, 0x02, 0x00, 0x00, 0x00,
  0x04, 0x00, 0x00, 0x00, 0x06, 0x00, 0x00, 0x00, 0x32, 0x2e, 0x31, 0x33,
  0x2e, 0x30, 0x00, 0x00, 0x5a, 0xbe, 0xff, 0xff, 0x04, 0x00, 0x00, 0x00,
  0x10, 0x00, 0x00, 0x00, 0x31, 0x2e, 0x35, 0x2e, 0x30, 0x00, 0x00, 0x00,
  0x00, 0x00, 0x00, 0x00, 0x00, 0x00, 0x00, 0x00, 0xd0, 0xb7, 0xff, 0xff,
  0xd4, 0xb7, 0xff, 0xff, 0xd8, 0xb7, 0xff, 0xff, 0xdc, 0xb7, 0xff, 0xff,
  0xe0, 0xb7, 0xff, 0xff, 0x8a, 0xbe, 0xff, 0xff, 0x04, 0x00, 0x00, 0x00,
  0x80, 0x03, 0x00, 0x00, 0x48, 0x9d, 0xf8, 0x3d, 0xae, 0x5e, 0xe5, 0x3e,
  0xab, 0x3b, 0x8c, 0xbe, 0x5b, 0x3c, 0xf8, 0x3e, 0x90, 0x1f, 0xf7, 0xbe,
  0x7a, 0x56, 0x77, 0xbd, 0x7e, 0x19, 0xb8, 0xbe, 0x30, 0xd0, 0x90, 0x3e,
  0x37, 0x2a, 0xa9, 0x3e, 0x8e, 0x90, 0x8b, 0xbe, 0x01, 0x68, 0x35, 0xbe,
  0x4a, 0x95, 0x19, 0xbc, 0x17, 0x12, 0x54, 0xbf, 0xea, 0x76, 0xd9, 0x3e,
  0xab, 0x10, 0x8d, 0xbe, 0x67, 0x3b, 0xb2, 0x3e, 0xe7, 0x05, 0xa5, 0xbc,
  0x4c, 0xd2, 0xdf, 0xbe, 0x9d, 0xb8, 0x88, 0x3e, 0x8b, 0xf3, 0x62, 0x3e,
  0xc7, 0x8a, 0x4e, 0xbe, 0x07, 0xfe, 0xe0, 0xbe, 0x80, 0xa7, 0xb3, 0x3e,
  0x0a, 0xbf, 0x13, 0x3e, 0x05, 0xf1, 0x0c, 0xbf, 0x6a, 0x86, 0x10, 0x3f,
  0x2e, 0x27, 0x91, 0xbe, 0x5b, 0x35, 0x56, 0xbe, 0x22, 0xaf, 0xa3, 0x3e,
  0xb3, 0x83, 0x0a, 0xbf, 0x6b, 0x62, 0x45, 0xbf, 0x4a, 0x5e, 0x3f, 0xbf,
  0xdf, 0x4a, 0xe5, 0x3d, 0xe3, 0xc9, 0x94, 0xbd, 0x56, 0xbf, 0xcb, 0xbe,
  0xe4, 0xab, 0x8b, 0x3e, 0x6f, 0xdb, 0xb0, 0xbe, 0x43, 0x5f, 0xa7, 0xbe,
  0x09, 0x4c, 0xe1, 0xbd, 0x80, 0xa3, 0xe0, 0xbd, 0x57, 0xdf, 0x93, 0x3d,
  0x96, 0x49, 0xde, 0xbd, 0x6f, 0x65, 0x5a, 0x3e, 0x9c, 0xba, 0x7b, 0x3e,
  0x85, 0x39, 0xb6, 0xbe, 0xf5, 0x66, 0x24, 0x3e, 0x7c, 0xaa, 0x35, 0x3d,
  0x23, 0x87, 0xb6, 0x3e, 0x4d, 0xc2, 0x32, 0x3e, 0x68, 0x2d, 0x89, 0xbe,
  0xdd, 0x38, 0xaf, 0x3d, 0x21, 0xc6, 0x80, 0x3e, 0x13, 0x2d, 0x8e, 0xbe,
  0xc3, 0xb5, 0xb2, 0x3e, 0x31, 0x18, 0x9f, 0x3e, 0x31, 0xf6, 0x99, 0x3e,
  0x8a, 0x66, 0xc4, 0x3d, 0x65, 0xd6, 0x9f, 0x3c, 0xf6, 0x21, 0x91, 0xbd,
  0x40, 0x15, 0xce, 0xbe, 0xb4, 0xdd, 0x62, 0x3e, 0x78, 0x0a, 0x8c, 0xbc,
  0x17, 0xad, 0x14, 0x3e, 0xbe, 0xf3, 0x3e, 0xbd, 0xd7, 0x2e, 0xf3, 0x3d,
  0xd5, 0xe7, 0x3f, 0x3e, 0x4b, 0x1a, 0x45, 0xbd, 0x5e, 0xe4, 0x24, 0x3e,
  0xc2, 0x24, 0xf9, 0xbe, 0xce, 0x21, 0xc7, 0xbe, 0x17, 0x64, 0xfd, 0x3d,
  0x42, 0x2a, 0x94, 0x3e, 0x86, 0x73, 0x14, 0x3e, 0x15, 0xdb, 0x7b, 0x3c,
  0xaf, 0xb6, 0x20, 0x3e, 0x8c, 0x94, 0x20, 0x3e, 0xfa, 0x2e, 0xda, 0xbd,
  0x51, 0xbe, 0xb5, 0x3d, 0x56, 0x90, 0x00, 0x3e, 0xb8, 0xd6, 0x4b, 0x3e,
  0x00, 0x6a, 0x48, 0x3e, 0x5d, 0x9c, 0xb0, 0xbe, 0x8a, 0x65, 0xaa, 0x3d,
  0x1d, 0x72, 0x32, 0x3e, 0x2c, 0x39, 0x89, 0xbe, 0xa1, 0xfc, 0xb6, 0x3e,
  0xc5, 0x4e, 0x75, 0x3e, 0x98, 0x27, 0x16, 0x3e, 0xf7, 0x99, 0x29, 0xbe,
  0x2b, 0x51, 0xbb, 0xbe, 0x34, 0x11, 0x78, 0xbe, 0xd3, 0xd2, 0xfe, 0xbe,
  0x5f, 0xb8, 0xfe, 0x3d, 0x55, 0xa6, 0x94, 0xbc, 0x2c, 0xff, 0x51, 0x3e,
  0xf9, 0x97, 0x96, 0xbc, 0x8d, 0xeb, 0x72, 0xbf, 0x36, 0x93, 0x69, 0xbe,
  0x41, 0x21, 0xd9, 0xbd, 0x4e, 0xae, 0xca, 0xbe, 0x3b, 0x32, 0x2e, 0x3e,
  0x0c, 0xad, 0xe7, 0xbe, 0x06, 0x72, 0x1f, 0x3d, 0xba, 0xdc, 0x96, 0xbe,
  0x08, 0x84, 0x4d, 0xbf, 0x27, 0xae, 0xe9, 0xbe, 0xbf, 0xd5, 0x44, 0x3e,
  0x3e, 0x6a, 0xf0, 0xbe, 0x62, 0x15, 0xc4, 0xbe, 0x4d, 0x15, 0xbf, 0xbe,
  0x7c, 0x91, 0x89, 0xbe, 0xe8, 0xdf, 0x72, 0xbe, 0xc1, 0xb5, 0x09, 0xbf,
  0x68, 0x36, 0xdb, 0xbb, 0x61, 0x16, 0x69, 0xbf, 0xc0, 0x75, 0x16, 0xbf,
  0x3f, 0xc2, 0xa5, 0x3d, 0x21, 0xb4, 0xec, 0xbe, 0xeb, 0x6b, 0x1a, 0xbf,
  0x55, 0xb3, 0x36, 0xbf, 0x66, 0x20, 0x0e, 0xbf, 0x65, 0x06, 0x0b, 0xbf,
  0xec, 0xcb, 0x05, 0xbf, 0x90, 0x0f, 0x06, 0x3d, 0x78, 0x16, 0x60, 0xbf,
  0x78, 0x64, 0x2b, 0xbe, 0x86, 0x00, 0x10, 0xbe, 0x88, 0xb0, 0x02, 0xbf,
  0x0d, 0xc9, 0x55, 0xbf, 0xd4, 0x9e, 0x21, 0x3e, 0x7e, 0xbc, 0xbf, 0xbe,
  0x6c, 0x96, 0x4a, 0xbf, 0xa1, 0x25, 0x3f, 0xbd, 0x22, 0xfc, 0x02, 0xbe,
  0xd9, 0x83, 0x81, 0xbe, 0x96, 0xe6, 0xa1, 0x3e, 0x3e, 0xcc, 0x64, 0xbf,
  0x7b, 0xea, 0x64, 0xbd, 0x1c, 0x37, 0x8d, 0x3e, 0x5b, 0xd7, 0xae, 0xbd,
  0x7b, 0x02, 0x9f, 0xbe, 0x7f, 0x7b, 0x70, 0xbd, 0x76, 0x89, 0x29, 0x3e,
  0x47, 0x0d, 0x38, 0xbf, 0x83, 0x05, 0x32, 0xbf, 0x24, 0x24, 0x52, 0xbe,
  0xb2, 0xcf, 0x64, 0xbe, 0xc5, 0x42, 0x7b, 0xbf, 0xe1, 0xec, 0x50, 0xbe,
  0xfd, 0x53, 0x29, 0xbf, 0xa7, 0x5c, 0xd6, 0xbe, 0xe3, 0x76, 0x1a, 0xbf,
  0xa5, 0x6b, 0x4c, 0xbd, 0xf2, 0x22, 0x1f, 0xbf, 0x6e, 0x01, 0x8e, 0x3e,
  0x32, 0x71, 0x1d, 0x3e, 0x14, 0x59, 0xf0, 0xbe, 0x06, 0x1a, 0xe5, 0xbe,
  0x93, 0xa7, 0xb7, 0xbe, 0xcb, 0x5a, 0xda, 0xbe, 0xda, 0xb6, 0x83, 0x3e,
  0xff, 0x3b, 0x9a, 0xbd, 0x4b, 0x9d, 0xdd, 0xbd, 0x94, 0xd0, 0x02, 0x3f,
  0xf4, 0x62, 0x73, 0x3e, 0x30, 0x85, 0xf6, 0x3e, 0x4e, 0xb2, 0xb6, 0x3e,
  0x46, 0x34, 0xcc, 0x3d, 0xf7, 0x0c, 0x59, 0x3e, 0xb4, 0xae, 0xe2, 0x3e,
  0x9b, 0x60, 0x5f, 0x3e, 0x1d, 0x42, 0xce, 0x3d, 0x79, 0xdc, 0x00, 0x3f,
  0x2a, 0xd8, 0x65, 0xbc, 0x73, 0x3d, 0x24, 0xbe, 0x38, 0x2a, 0x9a, 0x3e,
  0x6f, 0x7e, 0x47, 0x3e, 0x8a, 0xdd, 0x8b, 0x3e, 0xe2, 0x87, 0x33, 0x3e,
  0x4d, 0xa0, 0x96, 0xbd, 0x9c, 0x10, 0x28, 0x3e, 0x4b, 0xbb, 0xbb, 0x3e,
  0x3f, 0x89, 0x1e, 0x3e, 0xb4, 0x82, 0x8a, 0xbd, 0x32, 0x99, 0x8d, 0xbd,
  0x2c, 0xb5, 0x12, 0x3d, 0x13, 0xb2, 0xfd, 0xbc, 0xfd, 0xb3, 0xef, 0x3e,
  0x20, 0x1d, 0x4f, 0x3d, 0xef, 0x10, 0x2d, 0x3d, 0x15, 0x42, 0x75, 0x3e,
  0x0f, 0x5b, 0x88, 0xbc, 0xd8, 0x40, 0xab, 0x3d, 0x0e, 0x1c, 0xa0, 0xbe,
  0xe0, 0xfb, 0x67, 0xbe, 0x0b, 0xec, 0x61, 0xbe, 0x55, 0x95, 0x0a, 0xbe,
  0x16, 0x2d, 0x5b, 0xbe, 0x63, 0xa9, 0xd7, 0xbd, 0x9f, 0xb9, 0xb5, 0x3c,
  0xa5, 0x00, 0xdf, 0xbe, 0x36, 0xaf, 0x5f, 0xbd, 0x89, 0x16, 0xdb, 0xbd,
  0x57, 0x51, 0x42, 0xbe, 0x7d, 0x27, 0xb3, 0xbd, 0x45, 0x37, 0x0f, 0xbf,
  0x5d, 0x29, 0x84, 0x3d, 0x6f, 0x52, 0xf6, 0x3d, 0xbf, 0x5b, 0xae, 0xbd,
  0x74, 0x0a, 0xa5, 0xbe, 0x04, 0xfa, 0xc9, 0xbe, 0x9c, 0x19, 0xcb, 0xbe,
  0xe5, 0x07, 0x57, 0x3e, 0x6c, 0xd8, 0x9c, 0x3e, 0x4b, 0x08, 0xed, 0xbe,
  0x3d, 0xd5, 0xa7, 0xbd, 0x5d, 0x5b, 0xb4, 0xbc, 0x43, 0xc7, 0x09, 0xbf,
  0x36, 0x22, 0x94, 0x3e, 0x23, 0x85, 0x4c, 0x3d, 0x9b, 0x2c, 0xd9, 0xbe,
  0xff, 0x31, 0x71, 0x3e, 0x9f, 0x57, 0x0e, 0x3e, 0xef, 0x60, 0xc7, 0xbd,
  0x16, 0xc2, 0xff, 0xff, 0x04, 0x00, 0x00, 0x00, 0x00, 0x08, 0x00, 0x00,
  0xb6, 0x35, 0x05, 0x3f, 0xbb, 0xc0, 0x92, 0xbd, 0xe8, 0x36, 0xbd, 0x3e,
  0x5c, 0xda, 0x5e, 0x3e, 0xb2, 0xe8, 0xd3, 0xbd, 0x77, 0xd3, 0x5f, 0x3e,
  0xab, 0x67, 0x93, 0x3e, 0x37, 0xda, 0x06, 0x3d, 0xc4, 0xee, 0x50, 0xbe,
  0x3a, 0xca, 0x7a, 0xbe, 0x1f, 0x6a, 0x4b, 0x3d, 0xfa, 0xc4, 0x79, 0x3e,
  0xf1, 0x40, 0xdb, 0x3e, 0x11, 0x93, 0x33, 0xbe, 0xb8, 0x01, 0x39, 0x3c,
  0x30, 0x30, 0x5d, 0xbe, 0xfb, 0x4b, 0xa8, 0xbe, 0xd4, 0x27, 0x1c, 0x3e,
  0x2e, 0x5f, 0x19, 0xbe, 0x39, 0x00, 0x38, 0xbd, 0xc0, 0xfa, 0x5f, 0xbc,
  0xb1, 0x6d, 0xed, 0x3d, 0xe9, 0x6e, 0x9e, 0x3c, 0x2d, 0x06, 0x94, 0x3e,
  0x1d, 0x62, 0x9d, 0xbd, 0xdf, 0x61, 0xe6, 0x3d, 0x94, 0xb3, 0x74, 0x3d,
  0x68, 0xa6, 0x96, 0xbe, 0xe0, 0x35, 0xbb, 0xbe, 0xfe, 0x9b, 0xaf, 0xbe,
  0x67, 0x0d, 0x78, 0x3e, 0x84, 0xe5, 0xab, 0xbe, 0x59, 0x32, 0xcf, 0x3c,
  0xd0, 0xc2, 0x85, 0xbe, 0x51, 0x28, 0x86, 0xbe, 0x4b, 0xe6, 0xa6, 0x3e,
  0x19, 0x3a, 0xc6, 0xbd, 0x14, 0x93, 0x95, 0xbe, 0x09, 0xf9, 0x02, 0xbe,
  0x34, 0x21, 0xb5, 0xbe, 0x68, 0x59, 0xb5, 0x3d, 0xf3, 0x22, 0x6d, 0xbe,
  0xd8, 0x4d, 0x5d, 0xbe, 0x0b, 0x6d, 0x40, 0x3e, 0x09, 0x7f, 0x69, 0xbe,
  0x8b, 0x27, 0xe6, 0xbd, 0xee, 0x86, 0x10, 0x3c, 0x7e, 0x73, 0x73, 0x3c,
  0x41, 0x77, 0x99, 0x3e, 0x87, 0xac, 0x08, 0xbe, 0x56, 0x4e, 0x0e, 0xbf,
  0x09, 0x05, 0x7c, 0x3e, 0xa4, 0x2b, 0xa6, 0xbe, 0x8d, 0x19, 0xad, 0x3c,
  0xb1, 0x31, 0x92, 0xbd, 0xd0, 0x55, 0x8c, 0xbe, 0xb5, 0xf4, 0x1a, 0xbf,
  0x2b, 0x25, 0xa1, 0x3e, 0xe2, 0x72, 0x3e, 0xbe, 0xbd, 0xd1, 0x64, 0x3d,
  0xa1, 0x40, 0xba, 0x3d, 0xa5, 0xfc, 0xd7, 0xbe, 0xc9, 0xaa, 0xe0, 0x3e,
  0xc3, 0x1d, 0x67, 0x3e, 0x52, 0x61, 0xff, 0xbe, 0x68, 0xe0, 0xb1, 0x3d,
  0xd9, 0x6d, 0x20, 0x3e, 0xa4, 0x11, 0xb0, 0xbe, 0xd7, 0x51, 0x44, 0x3e,
  0xbc, 0x8b, 0xa3, 0xbe, 0xcd, 0x75, 0x92, 0x3e, 0x7a, 0xce, 0xe0, 0x3d,
  0x73, 0x42, 0x57, 0xbe, 0x8e, 0x65, 0xb0, 0xbe, 0x8f, 0x04, 0x59, 0x3e,
  0x96, 0x7d, 0xcc, 0x3e, 0x26, 0x38, 0x68, 0x3e, 0x15, 0xd8, 0x07, 0x3d,
  0x69, 0x34, 0x19, 0xbf, 0x81, 0x59, 0x9b, 0xbe, 0x11, 0xa8, 0x8d, 0xbd,
  0x39, 0xbf, 0xa9, 0x3d, 0x71, 0x2f, 0x8f, 0xbe, 0xac, 0x99, 0x52, 0xbe,
  0xdb, 0x73, 0xb4, 0xbd, 0x1e, 0x0f, 0xab, 0x3e, 0x3f, 0xb0, 0xe4, 0xbc,
  0xbf, 0x8a, 0x18, 0xbe, 0x3c, 0x20, 0xb1, 0xbd, 0x74, 0x9d, 0x97, 0xbe,
  0xd4, 0x9d, 0xa2, 0xbe, 0x56, 0x37, 0x1b, 0x3f, 0xb4, 0x24, 0x9f, 0x3e,
  0x54, 0x7e, 0x45, 0xbd, 0xab, 0xe0, 0xdf, 0x3e, 0xad, 0xf4, 0x12, 0x3e,
  0xc8, 0x7d, 0x3b, 0xbf, 0xeb, 0xb0, 0x87, 0xbd, 0x9a, 0xdf, 0x8b, 0x3e,
  0x37, 0xfb, 0x1d, 0x3e, 0xa0, 0x88, 0x8b, 0x3d, 0xee, 0x59, 0x84, 0xbc,
  0x0f, 0xde, 0x2d, 0x3e, 0x80, 0xfc, 0x35, 0xbd, 0x21, 0xbf, 0xad, 0x3e,
  0x0d, 0xba, 0x12, 0x3e, 0x90, 0x3c, 0xaf, 0xbe, 0x45, 0x23, 0xa1, 0x3d,
  0xbe, 0x3a, 0x5b, 0x3e, 0x30, 0x2b, 0xfa, 0xbd, 0x30, 0x02, 0x1a, 0xbe,
  0x9b, 0xf4, 0xf1, 0xbd, 0xcd, 0xf2, 0xac, 0xbe, 0xd1, 0xd1, 0xac, 0xbe,
  0xd9, 0xff, 0x9d, 0xbe, 0x67, 0x5e, 0x8e, 0xbe, 0x0f, 0xfe, 0x62, 0xbe,
  0x20, 0x97, 0x2f, 0x3e, 0xab, 0xb3, 0x74, 0xbd, 0xab, 0x86, 0x70, 0x3e,
  0xf4, 0xd3, 0xcc, 0xbd, 0x16, 0xb7, 0x34, 0x3d, 0xba, 0x85, 0x98, 0xbe,
  0xb7, 0x5d, 0x1f, 0x3e, 0x74, 0x71, 0x5e, 0xbe, 0x9d, 0x59, 0x89, 0xbe,
  0xa4, 0xfa, 0x9f, 0xbc, 0xd3, 0x2e, 0x90, 0x3a, 0xd8, 0x7e, 0x49, 0x3e,
  0xf8, 0xaa, 0x5d, 0xbe, 0xfd, 0x83, 0xc8, 0xbe, 0x1a, 0x8d, 0x03, 0x3e,
  0x61, 0xe7, 0x9c, 0xbe, 0x6b, 0x05, 0x38, 0x3d, 0xbe, 0xfe, 0x44, 0xbe,
  0xfc, 0x94, 0xad, 0xbe, 0x32, 0x9a, 0xcb, 0x3c, 0x7c, 0x94, 0x34, 0xbe,
  0x17, 0xbd, 0x84, 0xbe, 0x33, 0x1c, 0x9b, 0x3d, 0xa6, 0x60, 0xb4, 0xbe,
  0xb7, 0x7f, 0xc8, 0x3d, 0x7b, 0x0e, 0xfa, 0x3e, 0x59, 0x1a, 0x41, 0xbe,
  0xf4, 0x1d, 0x64, 0xbf, 0x59, 0x96, 0x44, 0xbe, 0x9e, 0xc5, 0x1f, 0x3e,
  0xf2, 0x8e, 0x98, 0xbe, 0x66, 0xa6, 0x6b, 0x3e, 0xd7, 0x4e, 0x33, 0xbe,
  0x0e, 0xb5, 0x68, 0xbd, 0x96, 0x7a, 0x74, 0x3e, 0x6c, 0xfb, 0x13, 0xbd,
  0xe6, 0x22, 0x40, 0x3e, 0x5e, 0xde, 0xe5, 0xbd, 0x5e, 0xd4, 0xfe, 0x3e,
  0x13, 0xd8, 0x5d, 0x3e, 0x74, 0x38, 0x40, 0x3e, 0xe7, 0x97, 0xc9, 0x3d,
  0x76, 0x48, 0xe5, 0x3d, 0xd9, 0xe1, 0x0a, 0x3d, 0xc4, 0xd8, 0x32, 0x3e,
  0xf5, 0xa4, 0x9a, 0xbe, 0x8d, 0x7f, 0xa7, 0x3d, 0x4c, 0x13, 0xa4, 0xbe,
  0x0c, 0xcc, 0x1c, 0x3e, 0x33, 0x2a, 0x4c, 0xbe, 0xc3, 0xbc, 0xb9, 0xbd,
  0x11, 0x0e, 0x95, 0xbe, 0x60, 0x4d, 0x92, 0x3c, 0xad, 0x78, 0x93, 0xbe,
  0x7a, 0xec, 0xa4, 0x3e, 0x97, 0xa4, 0x0e, 0xbe, 0x58, 0x8c, 0x65, 0xbd,
  0x40, 0x55, 0xe1, 0x3d, 0x40, 0x94, 0x74, 0x3d, 0xd0, 0x00, 0xaa, 0x3d,
  0xb2, 0x80, 0xd8, 0x3b, 0xbd, 0xde, 0x5f, 0xbe, 0x1b, 0x30, 0x12, 0x3e,
  0x56, 0xf5, 0x8e, 0x3e, 0x73, 0x21, 0x5a, 0x3e, 0x07, 0x75, 0x20, 0x3e,
  0xca, 0x61, 0x2e, 0xbc, 0x5b, 0x51, 0x56, 0x3e, 0x9f, 0xb7, 0x09, 0xbe,
  0x32, 0x66, 0x9c, 0xbe, 0x15, 0xc2, 0xd3, 0xbe, 0x57, 0x11, 0x59, 0xbe,
  0x89, 0xbd, 0x3d, 0x3e, 0x05, 0x6b, 0x86, 0x3e, 0xa7, 0x9c, 0x22, 0xbe,
  0x19, 0x55, 0x17, 0xbf, 0xb2, 0x6d, 0x86, 0xbe, 0xa2, 0x98, 0x43, 0xbd,
  0xbd, 0x58, 0x93, 0x3e, 0xed, 0xd2, 0x0b, 0xbd, 0x2a, 0x63, 0x15, 0xbe,
  0x17, 0xed, 0x04, 0xbd, 0x63, 0x9a, 0x22, 0xbd, 0x34, 0x00, 0x55, 0x3e,
  0xf5, 0x77, 0x9f, 0xbd, 0xfc, 0x90, 0xbe, 0xbb, 0x3c, 0x29, 0x91, 0x3d,
  0xeb, 0x49, 0x72, 0xbc, 0xf3, 0x47, 0x99, 0x3e, 0x48, 0x46, 0xc7, 0xbe,
  0x48, 0xcb, 0x4e, 0xbd, 0x61, 0xa4, 0x8f, 0xbd, 0x7a, 0x6b, 0x8c, 0x3e,
  0x33, 0xd4, 0xcf, 0xbd, 0x8d, 0xb9, 0x6e, 0x3e, 0x99, 0x05, 0x94, 0xbe,
  0x70, 0xd6, 0x63, 0x3e, 0x34, 0x85, 0x9d, 0x3e, 0x89, 0xef, 0x37, 0x3d,
  0x21, 0xad, 0x3f, 0xbe, 0xcd, 0x5a, 0x6e, 0xbd, 0x8a, 0x76, 0x3d, 0x3e,
  0x10, 0xf7, 0x17, 0x3d, 0x85, 0x6c, 0x0f, 0x3e, 0x07, 0xdd, 0xdd, 0xbd,
  0x6e, 0x47, 0xa0, 0x3e, 0xe3, 0xe1, 0xb2, 0xbe, 0x05, 0x68, 0x87, 0x3b,
  0x03, 0x34, 0x4c, 0xbe, 0xbd, 0xd0, 0xd3, 0xba, 0x7a, 0xc7, 0x0e, 0xbe,
  0xfe, 0x45, 0x1e, 0x3e, 0x56, 0xb6, 0x65, 0x3e, 0xb8, 0x55, 0x99, 0x3d,
  0x62, 0x57, 0xb0, 0xbd, 0xe3, 0xe3, 0x87, 0xbe, 0xd8, 0xdf, 0xe9, 0x3d,
  0x90, 0x7a, 0xdb, 0xbb, 0xfd, 0x5e, 0x9d, 0xbe, 0x60, 0xf5, 0xb0, 0x3b,
  0x5b, 0x5f, 0x28, 0xbe, 0x7e, 0x0b, 0x02, 0x3c, 0xde, 0x4c, 0x90, 0xbe,
  0x59, 0xc0, 0xbd, 0x3e, 0xd3, 0xda, 0xa2, 0x3e, 0x72, 0x33, 0xb8, 0x3c,
  0xce, 0x11, 0x56, 0x3c, 0x72, 0x72, 0x54, 0x3d, 0xa3, 0xd5, 0x8d, 0xbe,
  0xe4, 0x32, 0x13, 0xbe, 0x58, 0x72, 0xa9, 0xbe, 0xa6, 0x2f, 0x8d, 0x3d,
  0x9c, 0x8c, 0xa8, 0x3d, 0x8f, 0xb9, 0x27, 0x3e, 0xb3, 0x3d, 0x98, 0x3e,
  0xd8, 0xbc, 0x17, 0x3e, 0x4a, 0x9e, 0x22, 0x3d, 0xdc, 0xe3, 0x06, 0x3f,
  0x07, 0xa0, 0x46, 0xbe, 0x47, 0xe5, 0x74, 0x3b, 0x43, 0x4e, 0xd8, 0x3d,
  0xb5, 0x27, 0xf1, 0x3e, 0xa0, 0xee, 0x5f, 0xbe, 0x23, 0xe6, 0xbd, 0x3e,
  0x1c, 0xe8, 0x79, 0x3e, 0xee, 0xca, 0x6d, 0x3e, 0xff, 0x56, 0xd5, 0xbd,
  0xe4, 0x61, 0x55, 0x3d, 0xf0, 0x2f, 0xa8, 0xbe, 0x41, 0xe5, 0xed, 0x3d,
  0x04, 0x82, 0xe4, 0x3e, 0xc2, 0x4c, 0x39, 0x3e, 0xbd, 0xfa, 0xe0, 0x3e,
  0xfa, 0x0e, 0xd5, 0x3d, 0x59, 0x79, 0xd3, 0xbd, 0xde, 0x0b, 0x18, 0x3c,
  0xd1, 0xad, 0xec, 0xbd, 0x1f, 0x81, 0x09, 0x3e, 0x54, 0x73, 0x4c, 0x3e,
  0x8c, 0x5f, 0x27, 0x3e, 0x6e, 0x30, 0x97, 0x3e, 0xec, 0x9d, 0x8d, 0x3e,
  0x06, 0x76, 0x7f, 0x3e, 0xa0, 0xf9, 0xa7, 0x3e, 0x2c, 0xa7, 0x6e, 0x3d,
  0x20, 0x10, 0x48, 0xbe, 0x17, 0x00, 0x84, 0xbd, 0xf9, 0x02, 0x20, 0x3c,
  0x93, 0x8c, 0x14, 0xbe, 0xc8, 0xb8, 0x68, 0xbf, 0xdd, 0xb9, 0x7a, 0xbe,
  0xc4, 0x3e, 0xe2, 0x3e, 0xc5, 0xf5, 0xc2, 0x3d, 0x59, 0x12, 0xe0, 0xbd,
  0xe1, 0xc2, 0x37, 0x3e, 0xb4, 0x66, 0xd9, 0x3d, 0x3c, 0x0d, 0x2c, 0x3e,
  0x2e, 0x5b, 0x39, 0x3d, 0x26, 0x6f, 0xb6, 0xbd, 0x92, 0x6c, 0x3b, 0x3e,
  0x2a, 0x63, 0x4e, 0x3d, 0xb0, 0x7e, 0x2b, 0x3e, 0x31, 0xf5, 0x93, 0x3d,
  0x7c, 0xe2, 0xb5, 0xbe, 0xf5, 0x48, 0x0a, 0xbf, 0xd6, 0xd7, 0xa3, 0xbd,
  0x77, 0x28, 0x51, 0xbd, 0xd6, 0xf5, 0x95, 0x3e, 0xbe, 0xf0, 0xaf, 0xbe,
  0x97, 0x84, 0x9f, 0x3d, 0xc2, 0x68, 0x37, 0x3d, 0x65, 0xbe, 0xdb, 0xbc,
  0xa5, 0xf4, 0xfd, 0x3d, 0x42, 0x4b, 0x8f, 0xbd, 0x2a, 0x44, 0xdf, 0xbd,
  0x0d, 0xd4, 0xb8, 0x3d, 0x48, 0xbf, 0x49, 0x3e, 0x29, 0x86, 0xa9, 0xbe,
  0x79, 0xc4, 0x72, 0xbe, 0x40, 0x9c, 0x63, 0xbc, 0x64, 0xcf, 0x12, 0xbe,
  0x5d, 0x07, 0xa4, 0x3d, 0x70, 0x6a, 0xd7, 0x3d, 0xfa, 0x53, 0x96, 0xbe,
  0x9b, 0x67, 0x11, 0xbe, 0xeb, 0x27, 0x31, 0x3e, 0x08, 0x91, 0x94, 0x3e,
  0x7d, 0x6e, 0x0b, 0xbe, 0xc0, 0xd5, 0xa1, 0x3c, 0x88, 0xc1, 0x2d, 0xbe,
  0x02, 0x99, 0x13, 0xbd, 0x57, 0x76, 0x9c, 0x3e, 0x6b, 0x41, 0x66, 0xbe,
  0x80, 0xf3, 0xc2, 0xbd, 0x96, 0x8f, 0x06, 0x3d, 0x37, 0x71, 0x1b, 0x3e,
  0x12, 0x1a, 0x29, 0xbc, 0x54, 0x16, 0xd8, 0xbe, 0xbe, 0x7b, 0xbb, 0x3d,
  0x06, 0x42, 0x53, 0xbd, 0x0e, 0xf9, 0x4a, 0xbe, 0xae, 0x84, 0xd7, 0x3e,
  0x0c, 0x39, 0x13, 0x3d, 0xcd, 0xfc, 0x07, 0x3f, 0x51, 0x4b, 0x88, 0x3e,
  0x0c, 0xc3, 0xc6, 0xbc, 0x92, 0xac, 0x9e, 0xbb, 0xfe, 0x84, 0x40, 0x3f,
  0x43, 0xcb, 0x91, 0xbe, 0xb2, 0xca, 0xaf, 0x3e, 0xdf, 0x51, 0x1f, 0x3e,
  0xae, 0xae, 0xa3, 0x3d, 0x00, 0x82, 0x5c, 0x3e, 0x96, 0x63, 0xef, 0x3d,
  0x01, 0xf7, 0x15, 0x3e, 0x53, 0xc1, 0xa5, 0x3e, 0x47, 0x68, 0x8f, 0xbe,
  0x7a, 0x96, 0xc1, 0xbd, 0xa8, 0x24, 0x17, 0x3d, 0x6f, 0xa9, 0x02, 0xbe,
  0x89, 0x49, 0xd7, 0xbd, 0xc3, 0xd8, 0x9c, 0xbe, 0x9d, 0x4a, 0xe2, 0x3c,
  0x3f, 0x77, 0xd5, 0xbd, 0xcf, 0x09, 0x8d, 0x3e, 0x55, 0x72, 0x74, 0x3e,
  0xc4, 0x98, 0x14, 0xbe, 0x27, 0x30, 0x9f, 0xbd, 0xe3, 0x8a, 0xc6, 0x3c,
  0xcd, 0x06, 0xd7, 0x3e, 0xd3, 0x07, 0xa7, 0x3d, 0xbf, 0x66, 0x93, 0x3e,
  0x91, 0x2f, 0xaf, 0x3d, 0x55, 0x15, 0x03, 0x3d, 0x34, 0x06, 0x49, 0x3c,
  0x60, 0x00, 0xfb, 0xbd, 0xb8, 0x43, 0x81, 0x3d, 0x6f, 0xf0, 0x4e, 0x3d,
  0x19, 0x81, 0x9e, 0x3e, 0xad, 0xfd, 0x1b, 0x3e, 0xf1, 0xb5, 0xcd, 0x3c,
  0xb4, 0xcc, 0x85, 0x3e, 0x25, 0x2c, 0xd7, 0xbe, 0xca, 0x07, 0x46, 0x3e,
  0xea, 0x11, 0xa1, 0xbd, 0x68, 0x3f, 0x5d, 0x3e, 0x87, 0xa1, 0x43, 0xbc,
  0xff, 0x7a, 0x1e, 0xbd, 0x8a, 0x57, 0x92, 0xbe, 0x17, 0x7e, 0xd3, 0x3d,
  0x7f, 0x70, 0x9a, 0x3d, 0x53, 0xe5, 0x1c, 0x3e, 0x41, 0x15, 0x05, 0x3e,
  0xc8, 0x80, 0xb4, 0x3d, 0x6a, 0x15, 0x2a, 0xbe, 0x78, 0x17, 0x83, 0x3e,
  0x4e, 0x4e, 0xa8, 0xbe, 0x7b, 0xc6, 0x95, 0xbd, 0x6a, 0xc4, 0x7e, 0xbe,
  0xc5, 0xae, 0x96, 0x3d, 0xcb, 0xaa, 0x4a, 0x3e, 0x43, 0xe1, 0x5e, 0x3e,
  0x9a, 0x0b, 0x29, 0xbe, 0x28, 0x66, 0xe2, 0x3d, 0x12, 0xe8, 0x02, 0xbe,
  0x92, 0x1d, 0x49, 0xbe, 0x81, 0xe5, 0x03, 0x3e, 0x00, 0x0f, 0x8f, 0xbe,
  0x5b, 0x3e, 0x04, 0xbe, 0x48, 0x05, 0x6c, 0xbd, 0xc3, 0xfd, 0x84, 0xbc,
  0x0d, 0xa6, 0xab, 0xbe, 0xd1, 0x8b, 0xa7, 0xbe, 0x5c, 0x52, 0x0f, 0xbe,
  0x83, 0x21, 0x35, 0xbe, 0x8f, 0xea, 0xe0, 0xbe, 0x56, 0xd2, 0x05, 0xbf,
  0x84, 0xe9, 0xa5, 0x3d, 0xe1, 0x14, 0x50, 0x3d, 0x03, 0x0f, 0xc2, 0x3d,
  0x9a, 0xbe, 0x2a, 0xbd, 0x1f, 0x23, 0x1d, 0xbe, 0x0b, 0x37, 0x23, 0xbe,
  0x51, 0xe1, 0x8d, 0xbe, 0x60, 0xda, 0x0c, 0xbe, 0x64, 0xb0, 0x28, 0x3e,
  0x87, 0xd1, 0xab, 0x3e, 0x87, 0x8b, 0x02, 0x3e, 0xd7, 0x4d, 0x40, 0xbe,
  0xad, 0x6f, 0x9f, 0xbe, 0x57, 0xed, 0xa0, 0xbd, 0x46, 0x94, 0xae, 0xbe,
  0xbc, 0xac, 0x44, 0x3e, 0x05, 0xd3, 0xb2, 0x3b, 0xbc, 0x76, 0xb0, 0xbe,
  0x07, 0xb5, 0x13, 0xbf, 0x07, 0x99, 0xa4, 0xbe, 0xe9, 0xd0, 0x0b, 0x3e,
  0xa4, 0x1b, 0xa0, 0x3e, 0x65, 0x49, 0x39, 0x3e, 0x34, 0x90, 0x83, 0x3e,
  0xcc, 0x3b, 0xd0, 0x3d, 0x0e, 0x23, 0xa0, 0x3e, 0x07, 0xaa, 0x94, 0x3d,
  0x68, 0x33, 0x3e, 0x3e, 0x5a, 0x46, 0xf2, 0x3d, 0xba, 0x02, 0xc2, 0x3e,
  0x60, 0xb9, 0x10, 0x3e, 0xe2, 0x63, 0x99, 0x3d, 0xf0, 0xef, 0xc5, 0xbe,
  0xc2, 0x2a, 0x33, 0xbe, 0x72, 0xdf, 0x9e, 0x3e, 0xef, 0xe3, 0x44, 0x3e,
  0x87, 0xe0, 0x01, 0xbe, 0xbd, 0x14, 0x1a, 0xbe, 0x24, 0xb4, 0x81, 0x3d,
  0x5d, 0x79, 0x03, 0xbe, 0xfc, 0x48, 0x70, 0xbe, 0xcd, 0x45, 0x09, 0xbe,
  0x8c, 0xa8, 0x39, 0xbc, 0xa0, 0x24, 0x65, 0x3b, 0xba, 0xdf, 0x83, 0xbe,
  0xe6, 0xc6, 0x41, 0xbe, 0xee, 0x94, 0x9e, 0xbd, 0xc2, 0xfb, 0x22, 0xbe,
  0x19, 0x1f, 0xac, 0x3e, 0x2e, 0xc7, 0x1c, 0xbd, 0x40, 0x87, 0x18, 0xbc,
  0x40, 0xc3, 0xc3, 0xbc, 0x8f, 0x05, 0x5d, 0x3c, 0x3c, 0xa3, 0x61, 0xbe,
  0x71, 0xf0, 0xb9, 0x3e, 0x63, 0x22, 0x48, 0x3e, 0x72, 0xcb, 0x56, 0xbe,
  0xcc, 0x19, 0x2c, 0x3e, 0x8a, 0xd7, 0x12, 0xbe, 0x36, 0x5e, 0xb5, 0xbe,
  0xcc, 0x1d, 0xed, 0x3d, 0x5d, 0x1e, 0x61, 0xbc, 0x83, 0x2f, 0xb2, 0x3e,
  0x0b, 0x59, 0x27, 0xbc, 0x1b, 0x58, 0xa9, 0x3c, 0xfa, 0xb5, 0xb0, 0x3c,
  0xbb, 0xa4, 0xde, 0x3b, 0x7f, 0xcf, 0x8a, 0x3e, 0x27, 0xce, 0xa2, 0x3e,
  0xb2, 0xb1, 0xbb, 0xbc, 0x46, 0x0d, 0x03, 0x3f, 0xa9, 0x9f, 0x00, 0x3e,
  0x73, 0xaf, 0x84, 0x3e, 0xb4, 0x9b, 0xba, 0xbd, 0x15, 0xe8, 0x7b, 0x3e,
  0xde, 0xa8, 0xac, 0xbe, 0x1b, 0x3e, 0x89, 0x3e, 0xbe, 0x9a, 0x62, 0x3e,
  0xcd, 0x0a, 0xe6, 0x3e, 0xae, 0x1d, 0x05, 0x3f, 0xe4, 0x3a, 0x42, 0x3d,
  0x35, 0xe6, 0x5d, 0x3d, 0xb1, 0xbc, 0xc4, 0xbb, 0xa9, 0x85, 0xac, 0xbe,
  0x2d, 0xbc, 0x16, 0x3f, 0xb6, 0x92, 0x7b, 0xbd, 0x52, 0xdf, 0x18, 0x3f,
  0x08, 0x3f, 0x43, 0x3d, 0x1c, 0x1a, 0x3d, 0x3e, 0x2a, 0xc1, 0x89, 0x3d,
  0x5b, 0x00, 0x0b, 0x3f, 0x37, 0xcf, 0x9d, 0xbe, 0x30, 0x24, 0xb2, 0x3d,
  0x11, 0x1f, 0xc4, 0x3e, 0x9d, 0x13, 0x17, 0x3f, 0x2e, 0x90, 0xb2, 0x3d,
  0x4d, 0x21, 0xb4, 0x3b, 0x59, 0x01, 0xa7, 0xbe, 0x22, 0xca, 0xff, 0xff,
  0x04, 0x00, 0x00, 0x00, 0x00, 0x02, 0x00, 0x00, 0x98, 0x5c, 0x1a, 0xbe,
  0x58, 0x8b, 0xb2, 0xbd, 0x30, 0x9c, 0x91, 0xbd, 0x2e, 0xaf, 0xf3, 0xbd,
  0x3a, 0xd5, 0xf9, 0x3e, 0x29, 0xa3, 0xd4, 0x3e, 0x09, 0xb3, 0x80, 0x3e,
  0x80, 0x6e, 0x34, 0x3d, 0x41, 0xab, 0xe9, 0x3e, 0x5b, 0x99, 0x1e, 0xbe,
  0xd6, 0xc8, 0xd0, 0x3e, 0x08, 0xbd, 0xc1, 0x3d, 0xf7, 0x52, 0xf0, 0xbe,
  0x50, 0x50, 0x04, 0x3e, 0x0d, 0xab, 0xa8, 0xbd, 0x00, 0x9b, 0xb1, 0x3e,
  0x2b, 0x09, 0xc2, 0xbd, 0xaa, 0xe8, 0xf1, 0x3e, 0xa8, 0x20, 0x46, 0x3e,
  0x8c, 0x69, 0xd4, 0xbe, 0xb7, 0x20, 0xcd, 0x3e, 0x02, 0xf4, 0xe3, 0xbe,
  0x82, 0xe6, 0xa7, 0x3e, 0x00, 0x81, 0x7f, 0xbc, 0xf9, 0x65, 0xca, 0x3e,
  0x53, 0xb4, 0xd4, 0xbe, 0x57, 0xf3, 0x4e, 0x3e, 0x37, 0x00, 0x35, 0x3e,
  0x05, 0xd5, 0x3c, 0x3d, 0x10, 0x5f, 0x9d, 0xbc, 0x1c, 0x36, 0x55, 0xbe,
  0xa0, 0xb2, 0xfb, 0xbe, 0xe9, 0xf9, 0x3b, 0x3d, 0x6a, 0x72, 0xdb, 0x3e,
  0x44, 0xf5, 0xcf, 0x3e, 0x4e, 0x63, 0x95, 0xbd, 0x00, 0x8d, 0x91, 0xbe,
  0x03, 0x8f, 0x74, 0xbe, 0xe3, 0x61, 0x1a, 0x3e, 0x70, 0xaa, 0xe3, 0xbe,
  0xe8, 0x24, 0xfa, 0xbe, 0x76, 0x95, 0x85, 0xbe, 0x28, 0x56, 0xce, 0xbe,
  0x32, 0x17, 0x97, 0x3e, 0xd0, 0x66, 0xa6, 0xbd, 0xa3, 0x1d, 0x7b, 0x3e,
  0x4a, 0xbf, 0x82, 0x3e, 0xa0, 0x12, 0xd4, 0xbe, 0x1d, 0x19, 0x90, 0xbe,
  0x5c, 0xea, 0x52, 0xbd, 0x64, 0x03, 0xbb, 0xbe, 0x6a, 0x94, 0xc5, 0x3e,
  0x58, 0x7d, 0x9d, 0xbe, 0xa1, 0x3b, 0x6f, 0x3e, 0xf7, 0x63, 0x84, 0x3e,
  0x00, 0x88, 0xfb, 0xbb, 0x9b, 0x78, 0xc2, 0x3e, 0x98, 0x93, 0xdc, 0xbe,
  0x60, 0xa0, 0xf8, 0x3e, 0xe6, 0x20, 0x34, 0x3d, 0xe4, 0x16, 0x6a, 0xbe,
  0xd7, 0x3e, 0xac, 0x3c, 0xc6, 0x9d, 0x61, 0x3e, 0xc8, 0x98, 0x1e, 0xbe,
  0xb4, 0xd6, 0x8d, 0x3d, 0x15, 0x92, 0xee, 0x3e, 0x08, 0x3c, 0xc3, 0xbe,
  0x30, 0x71, 0xc5, 0x3e, 0x89, 0x52, 0x37, 0x3e, 0xab, 0x64, 0x90, 0x3e,
  0x4c, 0x9b, 0xaf, 0xbd, 0x40, 0x61, 0x80, 0x3e, 0xe1, 0x6c, 0x4b, 0x3e,
  0xb1, 0x11, 0x1a, 0xbd, 0xc0, 0x3c, 0xc8, 0x3d, 0xc6, 0xf5, 0x98, 0x3e,
  0x1a, 0xbe, 0x3b, 0xbd, 0x0a, 0x48, 0xf5, 0x3e, 0xf3, 0x58, 0x37, 0xbe,
  0xc0, 0x13, 0xc8, 0x3c, 0x1c, 0x64, 0xc5, 0xbe, 0x92, 0x44, 0xf0, 0xbe,
  0x7c, 0x51, 0x9d, 0x3e, 0x0f, 0xc2, 0x8e, 0xbe, 0x57, 0xc0, 0xe4, 0x3e,
  0x70, 0x62, 0xd6, 0x3e, 0xd5, 0x9d, 0xe7, 0x3e, 0xd0, 0x99, 0xbc, 0xbd,
  0x07, 0x6b, 0xec, 0x3e, 0x51, 0xe7, 0xa5, 0x3e, 0xa8, 0x00, 0x97, 0x3e,
  0x87, 0x25, 0x00, 0xbf, 0x57, 0xee, 0xbe, 0x3e, 0xfe, 0x1c, 0x3a, 0xbe,
  0x64, 0xbe, 0xc6, 0x3c, 0x00, 0x7f, 0x74, 0x3e, 0x4e, 0xf0, 0xf1, 0xbe,
  0xe1, 0xcd, 0xf6, 0x3e, 0x3a, 0x16, 0xc5, 0x3e, 0x60, 0x7b, 0x1b, 0xbd,
  0xc3, 0xbe, 0x08, 0x3d, 0x0d, 0x7b, 0xf9, 0xbe, 0x08, 0xd4, 0x96, 0xbe,
  0x10, 0xee, 0xe5, 0x3e, 0x23, 0x1e, 0x99, 0xbe, 0xe1, 0x9d, 0xfd, 0x3e,
  0x24, 0xc5, 0x9c, 0xbe, 0x54, 0xf6, 0xcc, 0x3e, 0x88, 0x66, 0x66, 0xbe,
  0xb4, 0x86, 0x80, 0x3e, 0xc9, 0x88, 0x07, 0xbe, 0x74, 0xe9, 0xcb, 0xbe,
  0xa0, 0x63, 0xf3, 0xbd, 0xc2, 0x54, 0xab, 0xbd, 0x95, 0xf4, 0xed, 0x3d,
  0x28, 0xae, 0x4b, 0xbe, 0x5f, 0x4b, 0xc3, 0x3e, 0xeb, 0x25, 0x27, 0x3e,
  0x3c, 0x26, 0x50, 0x3e, 0x20, 0xe0, 0x53, 0x3e, 0x1b, 0x03, 0xcd, 0x3e,
  0x15, 0x79, 0x96, 0xbe, 0xd2, 0x7b, 0xc2, 0x3e, 0x16, 0xae, 0xbd, 0xbe,
  0x9f, 0x39, 0x14, 0x3e, 0xf1, 0x7d, 0xc0, 0xbd, 0xdb, 0x98, 0xa9, 0x3e,
  0x00, 0x91, 0x25, 0x3c, 0x2e, 0xcc, 0xff, 0xff, 0x04, 0x00, 0x00, 0x00,
  0x40, 0x00, 0x00, 0x00, 0xb4, 0x83, 0x86, 0x3e, 0xef, 0x0d, 0x8f, 0xbb,
  0x8d, 0xa9, 0x37, 0xbd, 0xe6, 0xa0, 0x7f, 0xbc, 0x43, 0x13, 0x99, 0xbb,
  0xc3, 0xf6, 0x2a, 0xbc, 0xbc, 0x12, 0x84, 0xbc, 0x77, 0x8e, 0x82, 0xbc,
  0xe8, 0xdb, 0x97, 0xba, 0x35, 0x3f, 0xa5, 0xbb, 0xdb, 0x61, 0xee, 0xba,
  0x10, 0x47, 0xbb, 0xbe, 0xce, 0x5d, 0x3b, 0xbe, 0x48, 0xc0, 0xc2, 0x3b,
  0x9e, 0x7c, 0x54, 0x3e, 0x92, 0x74, 0x90, 0xbb, 0x7a, 0xcc, 0xff, 0xff,
  0x04, 0x00, 0x00, 0x00, 0x80, 0x00, 0x00, 0x00, 0xb5, 0xe7, 0x95, 0x3e,
  0x32, 0x57, 0xf9, 0x3c, 0x98, 0x23, 0x7e, 0xbd, 0x10, 0xdc, 0xc8, 0x3e,
  0xad, 0x89, 0x35, 0xbe, 0xd3, 0xd2, 0x43, 0xbd, 0x38, 0x39, 0x6c, 0xbe,
  0x51, 0xef, 0x68, 0xbd, 0x57, 0x3c, 0x93, 0x3e, 0x02, 0x89, 0x83, 0xbe,
  0x1d, 0x16, 0x86, 0xbd, 0xa7, 0x1b, 0x71, 0x3d, 0x54, 0x2f, 0x4a, 0xbe,
  0x6f, 0x30, 0x48, 0x3e, 0x68, 0x84, 0x3f, 0xbc, 0x53, 0x41, 0x9a, 0x3e,
  0x9c, 0x83, 0x82, 0x3e, 0xde, 0x5a, 0x98, 0xbe, 0xad, 0x85, 0xab, 0x3e,
  0xdd, 0xfe, 0xbb, 0x3e, 0xad, 0xb3, 0x1c, 0xbe, 0xdc, 0x73, 0xad, 0x3c,
  0x0c, 0xcb, 0xc6, 0x3e, 0x65, 0x59, 0xaa, 0x3e, 0x39, 0x3a, 0x80, 0x3c,
  0xd5, 0x6b, 0x5a, 0x3e, 0xdb, 0xfb, 0x38, 0xbd, 0x6d, 0xa1, 0x82, 0xbe,
  0xf1, 0x86, 0xa1, 0x3e, 0xd4, 0x8d, 0x57, 0xbb, 0x28, 0x38, 0x31, 0xbb,
  0xce, 0xe7, 0x1a, 0xba, 0x06, 0xcd, 0xff, 0xff, 0x04, 0x00, 0x00, 0x00,
  0x1c, 0x00, 0x00, 0x00, 0x09, 0xe6, 0x99, 0x3e, 0x09, 0x68, 0xaa, 0x3e,
  0x08, 0x5f, 0x62, 0x3d, 0xea, 0xac, 0xbb, 0xbe, 0x8b, 0x4a, 0xbf, 0xbe,
  0xf0, 0xf3, 0x53, 0xbd, 0xb5, 0x56, 0x5a, 0xbe, 0x2e, 0xcd, 0xff, 0xff,
  0x04, 0x00, 0x00, 0x00, 0x20, 0x00, 0x00, 0x00, 0xad, 0xb0, 0x76, 0xbc,
  0x95, 0xf6, 0xe4, 0x3c, 0xa8, 0x1b, 0xb6, 0xbb, 0x9c, 0x39, 0x07, 0xbc,
  0x8f, 0x40, 0x04, 0xbc, 0x71, 0xaa, 0xa1, 0xbb, 0xc7, 0x51, 0xd5, 0xba,
  0x00, 0x00, 0x00, 0x00, 0x5a, 0xcd, 0xff, 0xff, 0x04, 0x00, 0x00, 0x00,
  0x00, 0x32, 0x00, 0x00, 0xad, 0x8e, 0xc9, 0x39, 0xcf, 0x5c, 0x5a, 0xb9,
  0x8c, 0x7d, 0x97, 0x38, 0xba, 0xda, 0x51, 0x39, 0x7e, 0xea, 0xf1, 0x37,
  0x05, 0xf4, 0x39, 0x39, 0xe7, 0x92, 0x4e, 0x37, 0x29, 0x20, 0xf0, 0xb9,
  0x54, 0x19, 0x85, 0x39, 0xd2, 0xc1, 0xa5, 0xb8, 0xa7, 0x4f, 0xbf, 0xb6,
  0x04, 0x94, 0xc8, 0x39, 0x79, 0x05, 0xd5, 0x38, 0x50, 0x24, 0xbe, 0xb9,
  0x48, 0x29, 0xa3, 0xb9, 0x04, 0x93, 0xdb, 0xb9, 0xa6, 0xa6, 0x89, 0xb9,
  0xa7, 0x5e, 0xbc, 0x39, 0xd2, 0x67, 0x04, 0x39, 0x19, 0x98, 0x92, 0xb9,
  0x25, 0x3f, 0xb9, 0x39, 0xf2, 0x86, 0x03, 0xba, 0xcd, 0xb3, 0x80, 0x39,
  0x5d, 0x0f, 0x0a, 0xb9, 0x10, 0x54, 0x01, 0xb9, 0xee, 0x6b, 0xeb, 0xb9,
  0x0b, 0xca, 0x80, 0xb8, 0x74, 0xe9, 0x42, 0x39, 0xf8, 0xa7, 0xfb, 0xb6,
  0x9c, 0x12, 0xa9, 0xb9, 0xda, 0xd1, 0x25, 0xb9, 0x11, 0xf5, 0x95, 0xb7,
  0x00, 0xe8, 0xaa, 0x39, 0xd9, 0x55, 0xb8, 0xb9, 0xa4, 0x56, 0x86, 0x39,
  0x94, 0x6d, 0xc6, 0xb8, 0x55, 0xe0, 0x02, 0xb9, 0xc2, 0xe8, 0x55, 0x39,
  0x96, 0x34, 0x38, 0x39, 0x54, 0x67, 0x7a, 0xb9, 0x4a, 0x56, 0xfc, 0x38,
  0x71, 0xe4, 0x36, 0xb7, 0x15, 0xb5, 0xc5, 0x39, 0x5e, 0x47, 0xc1, 0xb7,
  0x41, 0x23, 0x3a, 0x37, 0x24, 0x5d, 0x7d, 0xb9, 0x19, 0x42, 0x9c, 0xb9,
  0x1f, 0x5b, 0x37, 0xb9, 0xd7, 0xc9, 0xa9, 0xb8, 0xe4, 0x37, 0xc2, 0x39,
  0x5e, 0xf9, 0xa1, 0x38, 0xfe, 0xdd, 0x80, 0x38, 0xe6, 0x0e, 0xa3, 0xb6,
  0x6e, 0x7a, 0x49, 0xb9, 0x64, 0x96, 0x54, 0x39, 0xae, 0x5d, 0x48, 0x39,
  0xe5, 0x93, 0x10, 0xb9, 0x1d, 0xaa, 0xa8, 0x39, 0x85, 0xdb, 0xb8, 0x39,
  0x8f, 0x2e, 0xf8, 0xb9, 0x78, 0x3e, 0x88, 0xb9, 0x11, 0x0f, 0xb0, 0x38,
  0xe3, 0xe8, 0x35, 0x39, 0x97, 0x8f, 0x9a, 0xb9, 0xf6, 0x91, 0xb0, 0xb9,
  0xce, 0xfe, 0x64, 0x39, 0x20, 0x73, 0x3d, 0xb9, 0x6f, 0x27, 0x74, 0xb9,
  0x6d, 0x63, 0x85, 0x39, 0x42, 0xfa, 0xa3, 0x39, 0x5f, 0x29, 0x0d, 0x38,
  0x5d, 0xb3, 0xaf, 0xb7, 0x3b, 0xcf, 0x74, 0x39, 0x64, 0xcf, 0x78, 0x39,
  0x65, 0xa4, 0x92, 0x37, 0x6f, 0x98, 0xa4, 0x39, 0xd8, 0x65, 0x63, 0xb9,
  0x65, 0xe6, 0x82, 0xb9, 0xe9, 0xd3, 0xf4, 0xb9, 0xef, 0x9d, 0x3d, 0xb8,
  0xca, 0xae, 0xe8, 0xb9, 0x76, 0x9f, 0x6b, 0x38, 0x54, 0x32, 0x12, 0x39,
  0x70, 0xaf, 0x51, 0x39, 0xe7, 0x50, 0xcd, 0xb8, 0x4c, 0xac, 0xc6, 0xb9,
  0xac, 0xe7, 0x13, 0x37, 0xd0, 0x15, 0x59, 0xb9, 0xc1, 0x6b, 0xc8, 0x37,
  0xbf, 0x09, 0xa2, 0x39, 0x03, 0x66, 0x9e, 0x38, 0x6d, 0x24, 0x63, 0x39,
  0x78, 0x54, 0x45, 0xb9, 0xfb, 0x31, 0xaf, 0x39, 0xf9, 0x7e, 0x82, 0xb9,
  0x47, 0x5d, 0xb8, 0xb8, 0x8c, 0xa4, 0xd4, 0xb9, 0x20, 0x99, 0x37, 0xb9,
  0x88, 0x59, 0xac, 0x38, 0x80, 0xe2, 0xd3, 0x39, 0x84, 0xd7, 0x00, 0xba,
  0x61, 0x8b, 0xdf, 0x37, 0x52, 0x07, 0xcb, 0xb9, 0x4d, 0xc3, 0xd1, 0xb9,
  0x77, 0xda, 0x9d, 0x37, 0x87, 0x9b, 0x02, 0xba, 0xfb, 0xf4, 0x5e, 0x39,
  0x5c, 0x0d, 0x8d, 0x39, 0xff, 0xe0, 0x7e, 0xb9, 0x8a, 0x13, 0xd2, 0x39,
  0x85, 0x24, 0x58, 0x39, 0x89, 0x22, 0xb5, 0x38, 0xb5, 0x00, 0x73, 0x39,
  0x66, 0x98, 0xcf, 0xb9, 0x94, 0xfd, 0x9b, 0x38, 0xf4, 0x10, 0xe0, 0xb9,
  0xa4, 0x5d, 0xc1, 0x39, 0x34, 0x8d, 0x83, 0x38, 0x62, 0x80, 0x74, 0x39,
  0xd4, 0x7e, 0xcf, 0x39, 0xbe, 0xc1, 0xe8, 0xb7, 0x68, 0x1f, 0x07, 0xba,
  0x27, 0xdf, 0x97, 0xb8, 0x0c, 0xca, 0xcb, 0x39, 0x47, 0xf0, 0xd5, 0x38,
  0x0b, 0x12, 0x10, 0x39, 0x91, 0x7b, 0x17, 0xb9, 0xa1, 0x9a, 0x45, 0xb9,
  0x4f, 0x21, 0xa5, 0x39, 0x60, 0xd7, 0xcb, 0xb8, 0x37, 0x48, 0x2d, 0x36,
  0xd4, 0xc0, 0x0a, 0xba, 0xea, 0x93, 0xe0, 0xb8, 0x44, 0x36, 0x39, 0x39,
  0x10, 0x04, 0xba, 0xb7, 0xc5, 0x01, 0x2a, 0xb9, 0x36, 0xc2, 0x02, 0xba,
  0x51, 0x53, 0x06, 0xba, 0xc6, 0x57, 0xf7, 0x37, 0x39, 0xbc, 0x35, 0x38,
  0x59, 0x02, 0x32, 0x38, 0x6e, 0x4b, 0x98, 0xb9, 0xf4, 0xec, 0xad, 0x38,
  0xda, 0x12, 0x81, 0x39, 0x92, 0x76, 0x21, 0x39, 0xdf, 0xe9, 0x6e, 0xb8,
  0x4a, 0x39, 0x8c, 0xb9, 0xa1, 0x50, 0x6c, 0x39, 0x47, 0xb6, 0x31, 0xb9,
  0x7f, 0x4e, 0xd4, 0xb8, 0xc3, 0x22, 0x09, 0xba, 0xb2, 0x0e, 0x06, 0x39,
  0x7a, 0x3a, 0xa6, 0xb6, 0x87, 0xf6, 0xd9, 0x38, 0xb3, 0x63, 0xbe, 0xb8,
  0x17, 0x02, 0x29, 0x39, 0x92, 0x75, 0xb7, 0xb9, 0xf9, 0xad, 0xe4, 0x37,
  0x3f, 0x1f, 0x76, 0xb8, 0x25, 0x00, 0xc3, 0x38, 0xf9, 0x51, 0xc3, 0x37,
  0x4d, 0xea, 0xaa, 0xb9, 0x1d, 0xf3, 0xef, 0xb9, 0x14, 0x15, 0x7d, 0x38,
  0x11, 0xe1, 0x95, 0x39, 0x2b, 0xac, 0xd3, 0xb9, 0xa1, 0x28, 0xd0, 0xb9,
  0xe2, 0xfe, 0x31, 0x39, 0xda, 0x16, 0xad, 0x39, 0x32, 0xa5, 0xc4, 0x39,
  0x78, 0xf6, 0xe6, 0x35, 0x99, 0xbb, 0x20, 0xb9, 0x3a, 0x5b, 0x63, 0xb9,
  0xc1, 0xd1, 0xad, 0xb6, 0x00, 0x36, 0x77, 0xb9, 0x6c, 0xb9, 0x43, 0x39,
  0xba, 0x7a, 0x8b, 0xb9, 0x61, 0xd1, 0xf8, 0xb9, 0xdd, 0xff, 0xa3, 0x38,
  0x16, 0xc2, 0x16, 0x39, 0xba, 0x81, 0x91, 0x38, 0x86, 0x08, 0xbe, 0x38,
  0xa5, 0x2a, 0xee, 0xb9, 0x13, 0x52, 0xbe, 0xb9, 0x8c, 0xc9, 0x53, 0x39,
  0x32, 0x46, 0xfe, 0xb9, 0x5a, 0x70, 0xb6, 0xb9, 0x89, 0x42, 0x58, 0xb9,
  0x1b, 0x0e, 0xe9, 0xb9, 0xf3, 0x63, 0x03, 0x39, 0x4e, 0xbe, 0xf8, 0xb9,
  0x1a, 0xa3, 0x9a, 0x38, 0x44, 0x76, 0x8d, 0x38, 0xd0, 0xd9, 0xb3, 0xb9,
  0xb6, 0xcc, 0x89, 0x39, 0xd1, 0xda, 0xb8, 0xb9, 0x11, 0x8a, 0x8b, 0xb7,
  0x26, 0xdf, 0xfc, 0xb9, 0xe5, 0x9f, 0x84, 0x39, 0x1d, 0x87, 0xb3, 0x39,
  0xe4, 0x5b, 0x00, 0xb9, 0x6a, 0x6a, 0xa3, 0xb9, 0xe5, 0xff, 0x94, 0x38,
  0x8a, 0xb3, 0xe0, 0xb9, 0x8f, 0xec, 0x2e, 0xb8, 0x01, 0xef, 0x8b, 0xb9,
  0x6d, 0xa7, 0x71, 0x39, 0x15, 0xfd, 0x83, 0x39, 0xed, 0x60, 0xc8, 0xb9,
  0xd8, 0xb5, 0x80, 0x39, 0xaa, 0xaf, 0x57, 0xb9, 0x06, 0xfa, 0x88, 0xb9,
  0xfe, 0xd4, 0xd6, 0xb9, 0xfc, 0xc8, 0x83, 0x38, 0x2e, 0x94, 0x74, 0xb9,
  0x4d, 0x53, 0x42, 0x39, 0xb7, 0x97, 0x2c, 0xb9, 0x4e, 0xd8, 0xe0, 0xb9,
  0x9b, 0x3e, 0x32, 0xb9, 0x77, 0x64, 0xe2, 0x38, 0xf6, 0xda, 0xb0, 0xb9,
  0xf2, 0x81, 0x85, 0xb9, 0xe7, 0xee, 0x22, 0xb9, 0x83, 0x2a, 0x0f, 0xb8,
  0x4d, 0x58, 0xce, 0xb9, 0x06, 0x8b, 0xf2, 0xb8, 0x98, 0xa7, 0x33, 0x39,
  0xfb, 0x49, 0xdf, 0x38, 0x50, 0x79, 0x90, 0x39, 0xcf, 0x6a, 0xda, 0x39,
  0x49, 0x24, 0x7a, 0xb9, 0x2a, 0xeb, 0xc9, 0xb8, 0xc9, 0x6b, 0x4f, 0x39,
  0xff, 0xf2, 0x43, 0x39, 0xf1, 0x85, 0xda, 0x39, 0xc1, 0x5f, 0x1e, 0x39,
  0x87, 0xe2, 0x01, 0xba, 0xf7, 0xc3, 0x32, 0x38, 0x45, 0x39, 0x69, 0x39,
  0x44, 0xef, 0xc9, 0xb8, 0x4c, 0xc2, 0xc8, 0xb9, 0xc4, 0x87, 0x9c, 0x39,
  0x2a, 0xcb, 0x0a, 0xba, 0x0f, 0xf4, 0x85, 0xb9, 0x88, 0xc3, 0xaa, 0x39,
  0x9e, 0xd4, 0xab, 0xb9, 0x16, 0x3e, 0x8a, 0x38, 0x2e, 0xf3, 0x04, 0xba,
  0x05, 0xd3, 0x90, 0x39, 0x71, 0x6c, 0x83, 0xb9, 0x74, 0xa5, 0xc6, 0xb9,
  0x2c, 0x2b, 0xf1, 0xb9, 0x0a, 0xd0, 0x7e, 0xb9, 0x21, 0xac, 0x91, 0xb9,
  0x90, 0x1e, 0xc6, 0xb6, 0x84, 0x29, 0x09, 0xb8, 0x82, 0xe8, 0x50, 0xb9,
  0xec, 0xc6, 0xac, 0x38, 0x5c, 0x5d, 0xb4, 0x39, 0x6b, 0x81, 0xcc, 0x39,
  0x9d, 0xf3, 0x7a, 0x39, 0x30, 0x34, 0xc1, 0xb4, 0xac, 0x18, 0xd3, 0xb9,
  0xc8, 0x79, 0x28, 0x39, 0x51, 0x9d, 0x93, 0x39, 0x64, 0xfa, 0x84, 0xb9,
  0x14, 0x10, 0x9c, 0xb9, 0xb9, 0x15, 0xaa, 0x39, 0x32, 0x64, 0x59, 0x39,
  0xb6, 0x2b, 0xa7, 0x38, 0x83, 0x4e, 0x62, 0xb7, 0xb5, 0x8f, 0x06, 0x39,
  0x37, 0x4b, 0xfc, 0xb9, 0xc5, 0x55, 0x87, 0x39, 0x8b, 0x51, 0xc3, 0xb9,
  0xc5, 0xf6, 0x32, 0x37, 0x51, 0xcc, 0x9c, 0xb9, 0x36, 0xf9, 0xbe, 0xb9,
  0xe5, 0xe1, 0xd7, 0xb9, 0x78, 0x41, 0xc6, 0x37, 0x5a, 0x0e, 0xf3, 0xb9,
  0xdb, 0xf4, 0x0c, 0xb9, 0x61, 0x8a, 0xe9, 0x38, 0x4c, 0x3b, 0x87, 0x38,
  0x56, 0x92, 0x2a, 0x39, 0xa5, 0x96, 0x87, 0xb9, 0x4f, 0x6f, 0x85, 0x39,
  0x7e, 0x84, 0xc2, 0x39, 0x1e, 0xdc, 0xd2, 0xb9, 0xa8, 0xca, 0x48, 0x38,
  0x8f, 0x80, 0xb0, 0x39, 0x60, 0xb6, 0x4a, 0xb8, 0x1d, 0x91, 0x02, 0xb7,
  0xc4, 0x14, 0x6f, 0x39, 0x46, 0x13, 0x77, 0xb7, 0x58, 0xc7, 0x82, 0xb9,
  0x53, 0x17, 0xac, 0x38, 0x4c, 0x55, 0x88, 0x39, 0xfa, 0x87, 0x12, 0x39,
  0x76, 0x1e, 0xc8, 0x39, 0xc2, 0xfd, 0xf5, 0x38, 0x2a, 0xb9, 0xf6, 0xb9,
  0x91, 0xb7, 0x0f, 0x39, 0x8c, 0x40, 0x6a, 0x39, 0xa5, 0xe0, 0x9f, 0x37,
  0x48, 0x09, 0x0a, 0xba, 0x18, 0xbe, 0x9e, 0xb9, 0xc9, 0xc1, 0x99, 0x39,
  0xae, 0xb3, 0x4a, 0x39, 0x29, 0x8b, 0x12, 0x39, 0xe0, 0x04, 0x95, 0xb9,
  0x4e, 0x64, 0xe6, 0xb9, 0x1f, 0xf3, 0xd7, 0xb9, 0xde, 0x7a, 0xd7, 0xb9,
  0xe5, 0xab, 0xa7, 0xb9, 0x78, 0x5f, 0xa0, 0x39, 0xad, 0x36, 0x45, 0x39,
  0xc2, 0x2e, 0xc4, 0xb8, 0x33, 0x87, 0xc7, 0xb8, 0x00, 0xf7, 0x38, 0xb7,
  0x91, 0x94, 0x5a, 0xb8, 0x55, 0x98, 0xb2, 0x39, 0x2b, 0x84, 0x72, 0x39,
  0xfd, 0x8f, 0x4c, 0xb9, 0xb7, 0xd1, 0x48, 0xb8, 0x40, 0x5b, 0x05, 0x39,
  0x63, 0xb9, 0xa4, 0x39, 0x51, 0x1a, 0x01, 0xba, 0xf4, 0x90, 0xaf, 0xb9,
  0x5b, 0xff, 0x82, 0xb9, 0x96, 0x58, 0xde, 0xb9, 0x84, 0x2e, 0xa5, 0x39,
  0xf3, 0x1f, 0xda, 0xb8, 0xe6, 0x55, 0x6b, 0xb9, 0x29, 0xbe, 0xa6, 0xb9,
  0x1f, 0x90, 0x98, 0xb8, 0xf7, 0xa5, 0xbe, 0x39, 0x34, 0xea, 0xe2, 0xb9,
  0x43, 0x01, 0xce, 0x39, 0x3a, 0x09, 0x46, 0x39, 0x9f, 0xb0, 0x90, 0xb8,
  0x63, 0xae, 0x77, 0x39, 0x92, 0x52, 0x0a, 0xb8, 0x88, 0xae, 0x68, 0x39,
  0x2d, 0x81, 0xfc, 0xb9, 0x7c, 0xeb, 0xb7, 0x39, 0x80, 0x80, 0x43, 0x39,
  0x6f, 0x09, 0xfd, 0xb9, 0x67, 0x88, 0x80, 0xb9, 0xd1, 0xdc, 0x75, 0x39,
  0xba, 0x2f, 0x0d, 0xb6, 0xa5, 0x45, 0x87, 0x39, 0xcc, 0x75, 0xcd, 0x39,
  0x8c, 0x0c, 0xaa, 0x39, 0xda, 0xc2, 0xaa, 0x35, 0x18, 0x2a, 0x50, 0x39,
  0x2d, 0x9e, 0x2d, 0xb8, 0xb6, 0x7f, 0xd5, 0x39, 0xbd, 0x4e, 0x8a, 0x39,
  0x17, 0xbb, 0x43, 0xb9, 0xe4, 0xb2, 0x28, 0x39, 0xe0, 0x1b, 0xbd, 0xb9,
  0x8b, 0xb1, 0xb2, 0x39, 0xf5, 0xc7, 0xd7, 0x39, 0xd1, 0xb0, 0x25, 0xb9,
  0xe3, 0x18, 0x0b, 0xba, 0xb4, 0x1b, 0xb0, 0x38, 0xb5, 0x95, 0x43, 0x39,
  0x3f, 0xfe, 0x88, 0x38, 0x2f, 0x67, 0x06, 0xb9, 0x8b, 0x07, 0xe1, 0xb9,
  0xe0, 0x4b, 0xcb, 0xb9, 0x62, 0x42, 0x12, 0xb8, 0xb2, 0x64, 0xb6, 0x39,
  0x8b, 0x6a, 0x9a, 0xb9, 0x6b, 0x36, 0xaf, 0xb6, 0x41, 0x34, 0x44, 0x38,
  0xac, 0x68, 0xe8, 0x38, 0x0c, 0xd9, 0xc7, 0x39, 0x4c, 0x9b, 0x8a, 0xb9,
  0x56, 0x77, 0xb5, 0xb8, 0xc1, 0x3b, 0xda, 0x39, 0xc3, 0xa3, 0x1b, 0xb8,
  0xdf, 0xc5, 0x77, 0xb9, 0x8f, 0xfc, 0xd1, 0x39, 0x37, 0x20, 0xc7, 0x39,
  0xc4, 0x57, 0x29, 0xb7, 0xb3, 0xeb, 0xbe, 0xb9, 0xef, 0xad, 0xcf, 0xb9,
  0x02, 0x90, 0x88, 0x39, 0xaf, 0x1d, 0x8f, 0xb8, 0xb2, 0xee, 0x3d, 0x39,
  0x2f, 0x91, 0xa1, 0xb9, 0x51, 0xd7, 0x62, 0x38, 0x2a, 0xff, 0xbc, 0x38,
  0xf3, 0x78, 0x4f, 0xb9, 0x9a, 0x07, 0xd2, 0xb9, 0x73, 0x5b, 0x01, 0x39,
  0x56, 0x83, 0xea, 0x36, 0x5a, 0x55, 0xc4, 0x39, 0xbb, 0x12, 0x23, 0x3a,
  0xbd, 0xff, 0x9b, 0x3a, 0x21, 0x40, 0x06, 0x3a, 0xd0, 0x29, 0xd2, 0x38,
  0x57, 0x7b, 0xfd, 0xb9, 0x49, 0xb9, 0xb3, 0xb9, 0xd4, 0x3e, 0x18, 0xba,
  0x40, 0xa2, 0xeb, 0xb8, 0xa7, 0x9c, 0x43, 0xba, 0x9f, 0xae, 0xb8, 0xb8,
  0x11, 0xcf, 0xac, 0xb9, 0x59, 0x8a, 0x32, 0xba, 0xa2, 0xd3, 0xf1, 0xb9,
  0x97, 0x9f, 0x8b, 0xb9, 0xd8, 0x6a, 0x06, 0xba, 0xd3, 0xbc, 0xf4, 0xb9,
  0x4f, 0x47, 0x8c, 0x37, 0xf8, 0x86, 0x69, 0xb8, 0x49, 0x13, 0x91, 0x38,
  0x83, 0xef, 0x12, 0x3a, 0xde, 0x43, 0x13, 0x3a, 0x58, 0xbf, 0x8f, 0x39,
  0xcb, 0x60, 0x44, 0xb8, 0x56, 0xcc, 0x82, 0x39, 0x8d, 0x3c, 0x56, 0xb9,
  0x33, 0xcd, 0x15, 0xba, 0x4d, 0xe1, 0x57, 0xb8, 0x09, 0xb0, 0x3b, 0xb9,
  0xea, 0x53, 0x5f, 0xba, 0x82, 0x5e, 0x44, 0xba, 0x35, 0x9d, 0x6a, 0xba,
  0x57, 0x3c, 0x63, 0xba, 0x12, 0x0f, 0x5c, 0xb8, 0x56, 0x3c, 0x47, 0xba,
  0x6b, 0x80, 0x0f, 0xba, 0x9a, 0x4e, 0x3a, 0xb9, 0x40, 0x09, 0x84, 0x39,
  0xd0, 0x84, 0xf8, 0xb9, 0x86, 0x1a, 0x9b, 0x39, 0xb9, 0x09, 0x39, 0xb8,
  0xde, 0x64, 0xbf, 0x39, 0x62, 0x45, 0x0c, 0x3a, 0xca, 0x14, 0x24, 0xb9,
  0x39, 0x3a, 0x15, 0x39, 0xea, 0xd2, 0x26, 0xb9, 0x8d, 0x54, 0x07, 0xba,
  0x07, 0x9e, 0x98, 0x39, 0x33, 0x1b, 0xef, 0xb9, 0xa4, 0x5d, 0xf2, 0xb9,
  0x5a, 0xa6, 0xb5, 0xb9, 0x3a, 0x7f, 0x53, 0x39, 0x2b, 0x9d, 0x21, 0xba,
  0x90, 0x33, 0x84, 0xb9, 0x7c, 0xe4, 0x39, 0xb8, 0xa5, 0x6c, 0x11, 0x38,
  0x3b, 0xb6, 0x48, 0xb9, 0x43, 0x14, 0xa5, 0xb9, 0xf2, 0xc3, 0xc2, 0x38,
  0xa0, 0x97, 0x17, 0x3a, 0x0a, 0xff, 0xd8, 0x39, 0x81, 0x79, 0xff, 0x39,
  0x85, 0x9a, 0x04, 0x39, 0x17, 0xbf, 0x76, 0xb9, 0x72, 0x80, 0x88, 0x39,
  0x9d, 0x68, 0x3a, 0x39, 0xb6, 0xf3, 0xc0, 0x39, 0xab, 0x0d, 0xae, 0x39,
  0x8a, 0x18, 0xf7, 0x37, 0x9a, 0x29, 0x70, 0x39, 0x53, 0x80, 0x8c, 0xb8,
  0x8d, 0x08, 0x68, 0x38, 0x86, 0x05, 0xd3, 0xb8, 0xe0, 0xa0, 0x0e, 0x3a,
  0xe8, 0x41, 0xa7, 0x39, 0xa4, 0x7e, 0xa3, 0x39, 0x6e, 0xe7, 0xf8, 0xb9,
  0xbf, 0xab, 0x8e, 0x38, 0x70, 0xc2, 0x2b, 0x3a, 0xb0, 0x35, 0x6d, 0xb9,
  0x5e, 0xd3, 0x35, 0xb9, 0xae, 0x46, 0x92, 0xb8, 0xc5, 0xcf, 0x5f, 0x38,
  0xcd, 0x66, 0x06, 0x39, 0xb3, 0xe2, 0x83, 0x39, 0x83, 0x5c, 0x0f, 0x3a,
  0x1b, 0x60, 0x77, 0x39, 0x03, 0x3c, 0xcc, 0x39, 0x95, 0x5d, 0x35, 0x3a,
  0xd9, 0xa7, 0x92, 0x39, 0x0b, 0x90, 0x1c, 0x39, 0x2d, 0x0c, 0x14, 0x3a,
  0x6c, 0xbf, 0x10, 0x38, 0x20, 0x43, 0x16, 0x3a, 0xf3, 0xd2, 0x70, 0xb8,
  0x64, 0x45, 0xff, 0x37, 0x30, 0x19, 0x45, 0xb9, 0xf6, 0x5c, 0x93, 0xb8,
  0x86, 0xc4, 0x66, 0x39, 0x9a, 0x61, 0x8e, 0x38, 0xbd, 0x92, 0xfe, 0xb8,
  0xc2, 0x4e, 0x29, 0x38, 0x85, 0x57, 0x00, 0xb9, 0xf8, 0xf8, 0x82, 0x39,
  0xe9, 0x63, 0x90, 0xb9, 0x59, 0x81, 0x49, 0xb9, 0x0f, 0x52, 0x11, 0x3a,
  0x24, 0x1d, 0x54, 0x39, 0xb3, 0xcd, 0x98, 0x39, 0xf6, 0x6b, 0xc7, 0x39,
  0x8a, 0xdd, 0xc2, 0xb6, 0xc6, 0x10, 0x1b, 0x38, 0xf6, 0x5e, 0x5c, 0x39,
  0xe1, 0x20, 0xfc, 0xb8, 0xc3, 0x87, 0x33, 0x3a, 0x6d, 0xe6, 0xa7, 0x39,
  0x3b, 0x6c, 0x42, 0xba, 0x0f, 0x5c, 0x04, 0x3a, 0x9a, 0x5d, 0x38, 0x39,
  0xa9, 0xb6, 0x5d, 0x39, 0x2a, 0xd8, 0x93, 0x39, 0x64, 0xb4, 0x8e, 0xb8,
  0xe4, 0x89, 0xc1, 0x39, 0x3b, 0xbd, 0x8a, 0xb9, 0x94, 0x20, 0x25, 0xba,
  0x8a, 0x38, 0x41, 0xb9, 0xd9, 0x84, 0x1c, 0xba, 0xe4, 0x57, 0x06, 0xba,
  0xaf, 0x62, 0xe6, 0x37, 0x6f, 0xfc, 0xd1, 0x38, 0xce, 0x6f, 0x48, 0xb9,
  0x75, 0x4f, 0x43, 0xba, 0x41, 0xbc, 0x15, 0xba, 0x0b, 0xcb, 0x65, 0x39,
  0x0b, 0x6d, 0xc7, 0x38, 0x44, 0xfb, 0x0d, 0xba, 0xfa, 0x54, 0x6d, 0xba,
  0x34, 0xa3, 0x0a, 0xba, 0xcb, 0x8b, 0xbd, 0x39, 0xbb, 0xfc, 0x24, 0x39,
  0xfd, 0xdb, 0xf1, 0x39, 0x20, 0x14, 0x04, 0x39, 0xf8, 0x2c, 0xa3, 0xb9,
  0xd3, 0x06, 0xfe, 0xb8, 0x08, 0xc9, 0x3e, 0x39, 0x1f, 0xec, 0x98, 0xb9,
  0x23, 0x44, 0x3c, 0xb9, 0x79, 0xb4, 0x76, 0xb9, 0x09, 0x50, 0x94, 0xb9,
  0x0d, 0x45, 0x95, 0xb9, 0x80, 0x7a, 0x46, 0xba, 0xdb, 0x31, 0xfe, 0xb9,
  0xfe, 0xdc, 0x32, 0x39, 0x41, 0xee, 0x13, 0x39, 0xb5, 0xf4, 0x95, 0xb9,
  0x38, 0x2e, 0x2f, 0xba, 0x79, 0x71, 0xa3, 0xb8, 0x01, 0x86, 0xf8, 0xb9,
  0xcf, 0x11, 0x4b, 0xba, 0x50, 0xbc, 0xfb, 0xb8, 0x1a, 0xa8, 0x07, 0x39,
  0x4f, 0xbf, 0x9d, 0x37, 0x76, 0x90, 0x37, 0xb9, 0x2d, 0x4a, 0x2e, 0xba,
  0xd2, 0xd4, 0x91, 0xb9, 0x61, 0x47, 0xa7, 0xb8, 0xac, 0x40, 0xcd, 0xb9,
  0x1e, 0xe3, 0x80, 0xb9, 0x73, 0x22, 0x43, 0x38, 0xe0, 0xc3, 0xc9, 0xb9,
  0x45, 0x6d, 0x3b, 0x39, 0x65, 0x6b, 0x2c, 0xba, 0x82, 0xfa, 0xc2, 0x37,
  0x7c, 0x7b, 0x43, 0xba, 0x38, 0x7c, 0x2d, 0xba, 0xa5, 0x6a, 0x25, 0xba,
  0xea, 0xa7, 0x1a, 0xba, 0xa0, 0x78, 0xf7, 0xb8, 0xf9, 0x8f, 0xaa, 0xb7,
  0x65, 0xf5, 0x9c, 0x39, 0x48, 0x4b, 0x8e, 0xb9, 0x0d, 0xe1, 0x8f, 0x39,
  0xab, 0x68, 0xa1, 0x38, 0x58, 0x91, 0x05, 0xba, 0xfe, 0x91, 0x52, 0xb8,
  0xef, 0xe3, 0x08, 0x3a, 0x67, 0xad, 0xe1, 0x38, 0x6b, 0xfb, 0xb1, 0x39,
  0xb5, 0x17, 0x6d, 0x38, 0xf9, 0x85, 0x7a, 0xb9, 0xd4, 0x9d, 0x14, 0xb9,
  0x1a, 0x82, 0xbb, 0xb9, 0xa5, 0xee, 0xb1, 0xb9, 0x03, 0x28, 0x67, 0xb9,
  0x2c, 0x8c, 0x92, 0xb9, 0xca, 0x60, 0x5a, 0x39, 0x60, 0xda, 0x9f, 0x39,
  0x96, 0xd1, 0x00, 0xba, 0x38, 0xf7, 0xdb, 0xb6, 0xd5, 0xde, 0x6b, 0x39,
  0x6d, 0xcf, 0x07, 0xba, 0x87, 0x28, 0xc1, 0xb9, 0x35, 0x33, 0x01, 0x38,
  0x64, 0x09, 0x12, 0x39, 0x54, 0x9e, 0xbd, 0x38, 0x1f, 0x79, 0x0b, 0x3a,
  0xb9, 0xfc, 0x32, 0x3a, 0x1f, 0xed, 0x33, 0xb9, 0x89, 0x28, 0x46, 0x39,
  0x0d, 0x19, 0xfb, 0xb9, 0x6e, 0xb0, 0xb2, 0xb8, 0xc3, 0xbe, 0x18, 0x3a,
  0xca, 0x38, 0x81, 0x38, 0x3c, 0xcb, 0xe8, 0x39, 0x4e, 0x75, 0xa3, 0xb9,
  0x00, 0x17, 0xcb, 0xb9, 0xa8, 0x86, 0x4c, 0xb9, 0x22, 0xc7, 0xd4, 0xb9,
  0x9a, 0x2d, 0x96, 0x39, 0x74, 0x78, 0xe6, 0xb9, 0xf6, 0x22, 0xc5, 0x39,
  0xb0, 0x62, 0x20, 0xb9, 0x9b, 0x21, 0xa5, 0xb9, 0x08, 0xbb, 0x8d, 0xb8,
  0x6b, 0x6d, 0x71, 0xb9, 0xc5, 0xbc, 0x8d, 0x35, 0x0e, 0x50, 0x44, 0x39,
  0x81, 0xe0, 0x0c, 0xb8, 0x73, 0x0d, 0xe6, 0xb9, 0xba, 0xe1, 0x38, 0x39,
  0x14, 0x07, 0xb8, 0x38, 0xed, 0xf6, 0x4a, 0xb9, 0xf3, 0xbf, 0xf2, 0xb8,
  0x15, 0x05, 0x7c, 0xb9, 0x71, 0x97, 0xc9, 0x39, 0xc9, 0x12, 0x6f, 0x38,
  0x14, 0xa6, 0x21, 0xba, 0x21, 0x62, 0xf9, 0xb8, 0xf2, 0x5c, 0x80, 0x39,
  0x17, 0x96, 0x32, 0xb7, 0xb3, 0x99, 0x8d, 0x39, 0x3c, 0xc8, 0xbc, 0x39,
  0x62, 0x80, 0x54, 0xb9, 0xa4, 0x37, 0x38, 0x39, 0x80, 0x14, 0xc8, 0xb9,
  0xf9, 0x84, 0x8a, 0xb9, 0x1e, 0xd9, 0xbd, 0xb8, 0xdc, 0xf0, 0xa6, 0xb7,
  0x65, 0x77, 0x0c, 0xb9, 0x37, 0x6d, 0x99, 0xb9, 0xca, 0x7d, 0xde, 0xb9,
  0x5b, 0xd3, 0x88, 0x39, 0xdd, 0xa5, 0x0f, 0xba, 0x5c, 0x95, 0x51, 0x38,
  0x18, 0x5f, 0x76, 0xb9, 0x69, 0x39, 0x17, 0xb9, 0xa7, 0xc3, 0xa4, 0x39,
  0x31, 0x21, 0x98, 0x39, 0xa7, 0xec, 0x09, 0x3a, 0x7f, 0x5a, 0xe1, 0xb8,
  0x35, 0x72, 0x07, 0xb9, 0x06, 0x8d, 0xce, 0x39, 0xfc, 0x81, 0xa0, 0x39,
  0x71, 0x01, 0xcc, 0x39, 0x6b, 0x7a, 0x5a, 0xb8, 0x44, 0x83, 0x61, 0x39,
  0xa7, 0x18, 0xc2, 0x39, 0x03, 0x8b, 0xc6, 0x39, 0x01, 0xf9, 0x5f, 0x39,
  0x9a, 0x5b, 0x83, 0x38, 0xfc, 0xb5, 0x99, 0xb8, 0x16, 0x0f, 0x12, 0xb6,
  0x4d, 0xa1, 0x68, 0x39, 0x38, 0x60, 0xfc, 0x38, 0x98, 0xc2, 0x29, 0x3a,
  0xb9, 0xa9, 0xed, 0x37, 0xdb, 0xc6, 0xf9, 0x39, 0xde, 0xb9, 0x9a, 0xb9,
  0xda, 0xd8, 0x86, 0x39, 0x08, 0x55, 0x91, 0xb8, 0x6d, 0x3f, 0xb4, 0x39,
  0x10, 0x08, 0xa8, 0x37, 0xac, 0xd7, 0x87, 0x39, 0x3e, 0x04, 0xf9, 0xb8,
  0x77, 0x37, 0x00, 0x39, 0x37, 0x4e, 0xdb, 0xb9, 0x22, 0x1a, 0x42, 0xb9,
  0x10, 0x15, 0x93, 0x39, 0xf2, 0x8d, 0x1f, 0x38, 0x15, 0x2e, 0x64, 0x3a,
  0x7e, 0x3d, 0x17, 0xb9, 0x8c, 0xc1, 0x62, 0xb8, 0xe2, 0x80, 0x8d, 0xb9,
  0xbd, 0x0e, 0x1c, 0x3a, 0xf9, 0x36, 0xcc, 0x39, 0xed, 0x3b, 0x7a, 0xb9,
  0x6e, 0x06, 0x74, 0x38, 0xcb, 0xbc, 0x1d, 0xb9, 0x21, 0xbb, 0xed, 0xb8,
  0x91, 0xaa, 0xa4, 0x39, 0x6e, 0x8c, 0xa9, 0x39, 0x98, 0xa7, 0x9c, 0xb9,
  0x77, 0x5b, 0xe0, 0x39, 0x4f, 0x9f, 0x6a, 0x39, 0x08, 0x07, 0x41, 0xb8,
  0x89, 0x1d, 0x04, 0x3a, 0x1d, 0xd4, 0x26, 0x3a, 0x1c, 0x2e, 0x8f, 0xb8,
  0x22, 0xc6, 0xb8, 0x39, 0xc5, 0x4a, 0x5a, 0xb9, 0xc0, 0x70, 0xdf, 0xb8,
  0xee, 0xa4, 0xb1, 0xb8, 0x02, 0xa7, 0xbe, 0xb9, 0x0b, 0x80, 0xf3, 0xb9,
  0xc2, 0xc1, 0x76, 0xb9, 0x4a, 0xc1, 0x76, 0xb9, 0xfe, 0xdd, 0xc8, 0x39,
  0x05, 0x31, 0xef, 0xb8, 0x7f, 0x5b, 0x02, 0x3a, 0xd3, 0x4f, 0xcf, 0x39,
  0x26, 0x88, 0xca, 0x39, 0x3f, 0x14, 0x0c, 0x39, 0x09, 0xc6, 0xbd, 0x39,
  0x0d, 0x10, 0xae, 0x38, 0xf4, 0xaf, 0x71, 0x38, 0xe2, 0x31, 0x04, 0x3a,
  0x9e, 0xe6, 0x16, 0x3a, 0x03, 0x53, 0x91, 0xb8, 0xd6, 0x52, 0xd3, 0xb7,
  0x9f, 0x20, 0x6a, 0x39, 0xa4, 0xcb, 0x18, 0xb9, 0xf8, 0xdc, 0xa2, 0xb9,
  0xd2, 0x42, 0x96, 0xb9, 0x10, 0x7b, 0x82, 0xb9, 0x24, 0x02, 0xbc, 0xb9,
  0x19, 0x5a, 0xf8, 0xb6, 0x40, 0xda, 0x34, 0x38, 0x7b, 0xa6, 0xf2, 0x38,
  0x25, 0x01, 0x87, 0xb9, 0x7c, 0xc6, 0x88, 0x39, 0x87, 0x35, 0xcd, 0x39,
  0xa3, 0x98, 0x44, 0x39, 0x4b, 0x50, 0x89, 0xb9, 0x44, 0x98, 0xed, 0x39,
  0xa7, 0xa5, 0x04, 0x39, 0x9d, 0x12, 0x42, 0x39, 0xe0, 0xec, 0x48, 0xb9,
  0x8d, 0xc5, 0x27, 0x39, 0xf8, 0x43, 0x9f, 0xb8, 0xbe, 0xd7, 0xbb, 0xb9,
  0x57, 0x4f, 0x0b, 0xb9, 0x6c, 0xcf, 0x4a, 0x39, 0x82, 0xfa, 0xe6, 0xb9,
  0xda, 0x68, 0x84, 0x39, 0x5b, 0x1a, 0xbe, 0x39, 0xc7, 0x03, 0x17, 0x3a,
  0x0c, 0x85, 0x23, 0x39, 0xa4, 0x83, 0x1c, 0x3a, 0x7d, 0xed, 0xe2, 0x39,
  0xa2, 0x31, 0xf4, 0x39, 0x95, 0x0c, 0x48, 0xb9, 0x30, 0xbe, 0x79, 0x39,
  0x9d, 0xd3, 0xd2, 0x39, 0x37, 0x87, 0x93, 0xb9, 0x21, 0x27, 0x47, 0x38,
  0xbe, 0x9c, 0x9b, 0x39, 0x35, 0x5a, 0x7c, 0x39, 0xdb, 0x4c, 0xa9, 0x39,
  0x24, 0x21, 0xbb, 0x39, 0xba, 0x66, 0x03, 0xba, 0x69, 0x2c, 0x2f, 0x39,
  0xa3, 0x6e, 0xc3, 0x38, 0x9c, 0x59, 0x0f, 0x39, 0xa1, 0xe6, 0x6c, 0xb7,
  0x05, 0x8b, 0xdf, 0xb9, 0x6d, 0x5c, 0xdf, 0xb7, 0x1a, 0x4a, 0x5c, 0x39,
  0xdf, 0x6f, 0xc8, 0x39, 0x1c, 0x5d, 0xff, 0x39, 0x63, 0xdd, 0x11, 0x38,
  0x07, 0xa0, 0xc7, 0xb8, 0x8c, 0x26, 0xe0, 0x38, 0xa6, 0xd9, 0x0c, 0x39,
  0x6e, 0xdf, 0x97, 0x39, 0x62, 0x92, 0xff, 0x38, 0x05, 0xfb, 0x89, 0x39,
  0x60, 0x00, 0xa0, 0x38, 0x8c, 0x03, 0x31, 0xb9, 0x59, 0x38, 0x5a, 0xb9,
  0xa4, 0x41, 0x3a, 0xb9, 0x97, 0xcd, 0x19, 0xb7, 0xb8, 0x16, 0xe7, 0x39,
  0xa6, 0xb0, 0x84, 0x38, 0xc7, 0x98, 0x11, 0x39, 0xf4, 0x43, 0x09, 0xb9,
  0x52, 0x64, 0x58, 0xb9, 0x28, 0x3f, 0xbd, 0x39, 0x02, 0x69, 0x1e, 0xb9,
  0x77, 0x34, 0xcb, 0x39, 0x39, 0x28, 0xcb, 0x39, 0x41, 0x86, 0x2e, 0xb8,
  0xa8, 0x00, 0x9e, 0x39, 0xeb, 0xdc, 0x93, 0x38, 0x9e, 0x7a, 0x8f, 0x39,
  0xac, 0xf5, 0x9a, 0xb9, 0x64, 0xcb, 0x93, 0x38, 0xf7, 0x60, 0x09, 0xb8,
  0x77, 0x16, 0x08, 0xb9, 0x3f, 0xee, 0xb9, 0x39, 0x9f, 0x21, 0xf3, 0xb8,
  0x55, 0xbd, 0xda, 0x38, 0x1a, 0xe7, 0xaa, 0x39, 0xf6, 0xf9, 0x3f, 0xb9,
  0x0f, 0x8e, 0xd3, 0xb9, 0xbe, 0xd4, 0xad, 0x38, 0x2a, 0x4c, 0xa3, 0x38,
  0x82, 0x26, 0x71, 0x39, 0x0d, 0x7c, 0x67, 0xb6, 0x9c, 0x39, 0xd6, 0x39,
  0x4a, 0xb7, 0xcf, 0xb9, 0x97, 0xc9, 0xa8, 0xb9, 0x9b, 0x1b, 0x62, 0xb9,
  0xba, 0xd3, 0xa8, 0xb9, 0x47, 0x6b, 0xfc, 0xb9, 0xfc, 0x1d, 0xbd, 0xb9,
  0x3c, 0x74, 0xea, 0xb9, 0x39, 0xde, 0x42, 0xb9, 0x01, 0xb2, 0xd2, 0xb8,
  0x96, 0x35, 0xfc, 0xb9, 0x9f, 0x1b, 0x77, 0x39, 0xa0, 0xf5, 0xda, 0x39,
  0x4c, 0x2e, 0x87, 0x39, 0x30, 0x3c, 0xc9, 0x38, 0x3f, 0x1d, 0x20, 0xb9,
  0x8b, 0x00, 0xc7, 0xb8, 0x54, 0x53, 0xa8, 0xb9, 0x37, 0xa2, 0xde, 0x39,
  0x40, 0xe5, 0xb4, 0x39, 0xfa, 0x39, 0xa6, 0xb9, 0xcd, 0x19, 0x95, 0x39,
  0xb5, 0x6a, 0x08, 0xb9, 0x4a, 0x1b, 0x9e, 0x38, 0xfb, 0x2e, 0xa5, 0xb8,
  0x36, 0x0d, 0x67, 0x39, 0x66, 0x3b, 0xa9, 0xb9, 0x65, 0xf6, 0x65, 0x39,
  0xda, 0x24, 0xae, 0xb9, 0x64, 0xfc, 0xd3, 0xb7, 0x53, 0xf0, 0xd4, 0x38,
  0x6c, 0xf1, 0xc1, 0x39, 0xe4, 0xb4, 0x25, 0xb9, 0xb0, 0xa4, 0x39, 0xb7,
  0x5f, 0xbb, 0xd5, 0xb9, 0x43, 0x29, 0x26, 0xb9, 0xf1, 0x63, 0x00, 0xba,
  0xfc, 0x23, 0xc4, 0x38, 0xb3, 0x09, 0xe3, 0x39, 0x7c, 0x50, 0xa8, 0xb9,
  0xce, 0x27, 0xf6, 0x37, 0xbf, 0x06, 0x01, 0x39, 0x2c, 0xf5, 0xd1, 0x39,
  0x8d, 0xa5, 0x5c, 0xb9, 0x6f, 0xad, 0x1d, 0x39, 0xc2, 0x4f, 0xfc, 0xb9,
  0xad, 0x88, 0xc6, 0xb8, 0xeb, 0x8f, 0xd0, 0xb9, 0xcb, 0x50, 0x55, 0xb9,
  0x3e, 0xf4, 0xae, 0x39, 0xe8, 0x37, 0x77, 0xb9, 0x31, 0x4d, 0x52, 0x39,
  0x6a, 0xb7, 0xf8, 0xb8, 0x85, 0xd4, 0xe1, 0x39, 0x66, 0xfa, 0x38, 0x39,
  0xdc, 0x09, 0x35, 0x39, 0x53, 0x56, 0xc7, 0xb9, 0xa7, 0xc8, 0xe7, 0xb9,
  0xfb, 0x97, 0xf5, 0xb9, 0xa8, 0x34, 0xd9, 0x39, 0xb2, 0x31, 0xad, 0x39,
  0xf1, 0x8a, 0xa4, 0xb9, 0x0c, 0xe8, 0xd9, 0xb9, 0xb4, 0x53, 0xa4, 0xb9,
  0x3a, 0x09, 0xea, 0xb9, 0xc3, 0xdf, 0xc1, 0x38, 0x8c, 0xec, 0x94, 0xb9,
  0x0b, 0x1d, 0xe4, 0xb8, 0x3e, 0x1d, 0xd0, 0x39, 0x1a, 0xfc, 0x82, 0x39,
  0xd7, 0x6a, 0x87, 0x39, 0xe8, 0x11, 0xb1, 0xb9, 0xca, 0x07, 0x6a, 0xb9,
  0x96, 0x45, 0x5c, 0xb7, 0x88, 0xda, 0x6f, 0xb9, 0x34, 0x95, 0x26, 0xb9,
  0x47, 0x34, 0x47, 0x39, 0xe5, 0xb2, 0x06, 0x39, 0xa3, 0xdd, 0x13, 0x38,
  0x09, 0x88, 0x10, 0xb9, 0x6d, 0x72, 0x02, 0xb9, 0x79, 0xda, 0xc4, 0x38,
  0xd0, 0xa6, 0xa3, 0x39, 0xc5, 0x37, 0x48, 0x39, 0xcb, 0x74, 0x33, 0xb9,
  0xee, 0x89, 0x7b, 0x39, 0x95, 0x49, 0xce, 0xb9, 0x5d, 0x35, 0x20, 0xb9,
  0x9b, 0xd2, 0xe2, 0x37, 0x56, 0x56, 0xba, 0xb7, 0x50, 0x4d, 0x10, 0xb9,
  0x3f, 0x39, 0xa6, 0xb9, 0xaf, 0x15, 0x70, 0xb9, 0xd1, 0x75, 0x23, 0xb9,
  0xf3, 0x97, 0xdf, 0x39, 0xcc, 0xbb, 0x09, 0xb9, 0xf0, 0xa2, 0x08, 0xb7,
  0x64, 0x46, 0x2f, 0xb9, 0xa2, 0x92, 0x13, 0xb9, 0x8e, 0xbc, 0x4c, 0x39,
  0xef, 0x55, 0x75, 0x39, 0x9c, 0xa0, 0xd3, 0x38, 0xe3, 0xef, 0xe6, 0xb9,
  0x41, 0x29, 0xdf, 0xb6, 0xa9, 0x80, 0xe2, 0x36, 0xa8, 0xa6, 0x4a, 0xb9,
  0xbd, 0x95, 0xd8, 0xb7, 0x4c, 0x58, 0x3f, 0xb9, 0x98, 0x2b, 0x68, 0x38,
  0x89, 0x72, 0xef, 0xb9, 0x0a, 0x74, 0x86, 0xb9, 0x54, 0x96, 0xcb, 0xb9,
  0x36, 0xfd, 0xb8, 0x36, 0x30, 0x74, 0x18, 0xb9, 0xdb, 0x0e, 0xda, 0x39,
  0x6f, 0xbf, 0xb1, 0xb9, 0x25, 0x4e, 0xd1, 0xb8, 0x1e, 0x03, 0x40, 0xb9,
  0xb2, 0x39, 0xd7, 0x37, 0x6e, 0x08, 0x9a, 0xb9, 0x74, 0xb3, 0xa0, 0xb8,
  0x3c, 0xbc, 0x72, 0xb8, 0x6f, 0xaf, 0x91, 0x39, 0xf3, 0x13, 0xfe, 0x38,
  0x24, 0x2f, 0x5e, 0xb9, 0x42, 0x0e, 0xa4, 0xb9, 0x24, 0x2c, 0x13, 0x39,
  0x27, 0xdc, 0x0a, 0x39, 0x72, 0xd0, 0x8d, 0x39, 0xcd, 0x2d, 0x10, 0xb9,
  0xeb, 0xa8, 0x05, 0xb8, 0x92, 0x6b, 0x4a, 0xb9, 0x36, 0xa4, 0x66, 0xb8,
  0x90, 0xf9, 0xbf, 0xb7, 0x2b, 0x8c, 0x06, 0xb8, 0x78, 0x8d, 0xb5, 0x37,
  0x97, 0xfe, 0xdf, 0x39, 0xd9, 0x8b, 0xd5, 0x39, 0xb7, 0x7f, 0xa9, 0x39,
  0xfa, 0x2c, 0xff, 0xb9, 0xb2, 0xb1, 0xce, 0x39, 0x66, 0x87, 0x99, 0xb8,
  0x21, 0xd2, 0x7a, 0x38, 0xa7, 0x7f, 0x37, 0xb9, 0xf4, 0xc5, 0xd6, 0xb8,
  0x45, 0xe2, 0x9b, 0xb8, 0x6d, 0x72, 0xda, 0xb9, 0xff, 0x35, 0x8f, 0x39,
  0x56, 0x3b, 0x01, 0xba, 0xe4, 0x9e, 0x08, 0x39, 0xa9, 0xd9, 0x6f, 0xb9,
  0x18, 0x78, 0x85, 0xb9, 0xc1, 0x98, 0xff, 0xb8, 0x4b, 0x3f, 0x8d, 0xb7,
  0x0d, 0x47, 0x79, 0x39, 0xaf, 0x8b, 0xa6, 0xb8, 0x45, 0x30, 0x21, 0xb9,
  0xdb, 0x85, 0xb0, 0xb8, 0x1d, 0xeb, 0x79, 0x36, 0x27, 0xf9, 0x81, 0x37,
  0x9c, 0x3f, 0xc7, 0xb9, 0x65, 0x60, 0x18, 0x39, 0x6c, 0xfc, 0xe0, 0x37,
  0x95, 0xaf, 0xf3, 0xb9, 0x20, 0x91, 0xc8, 0x35, 0xf8, 0x0c, 0xaf, 0x39,
  0xa7, 0xb3, 0xbf, 0xb9, 0x74, 0xb1, 0x29, 0x39, 0xc5, 0xe2, 0x72, 0xb9,
  0xfc, 0xf3, 0x6b, 0x39, 0xc4, 0x68, 0xc7, 0xb7, 0xc6, 0x3d, 0x89, 0x37,
  0x77, 0x7b, 0x97, 0xb9, 0x43, 0x6c, 0x28, 0xb9, 0x6e, 0xef, 0x8f, 0x39,
  0x57, 0x75, 0x7c, 0xb9, 0x4f, 0xe6, 0x50, 0x38, 0x99, 0x09, 0x06, 0xb9,
  0x1c, 0xff, 0xbb, 0x38, 0x78, 0x33, 0x9c, 0xb9, 0x84, 0xcf, 0x1b, 0x38,
  0x91, 0x35, 0xe3, 0x38, 0xbe, 0x07, 0x21, 0xb9, 0x4a, 0xe5, 0xe7, 0xb9,
  0x25, 0x8d, 0x64, 0x39, 0x76, 0x4e, 0x16, 0x38, 0x44, 0x4a, 0xdf, 0xb9,
  0xaf, 0x92, 0xd9, 0x39, 0xed, 0xd0, 0xab, 0xb9, 0x53, 0x6f, 0x2a, 0xb8,
  0x45, 0x73, 0xf6, 0xb9, 0x73, 0x85, 0x1d, 0x39, 0x20, 0xe9, 0x36, 0x39,
  0x26, 0x77, 0xb2, 0xb9, 0xbb, 0x80, 0x9e, 0x38, 0x14, 0xbd, 0x2c, 0xb9,
  0x59, 0x94, 0x19, 0xb9, 0x96, 0xa7, 0xbd, 0x37, 0x4a, 0x75, 0x7c, 0x39,
  0x1d, 0x7a, 0x2b, 0xb9, 0x83, 0x35, 0xa4, 0x39, 0xbd, 0xc1, 0x90, 0xb8,
  0x70, 0x78, 0xb2, 0x39, 0xeb, 0x38, 0xa1, 0xb8, 0xd3, 0x26, 0xfe, 0x38,
  0x1c, 0x11, 0xf5, 0xb9, 0xad, 0x55, 0x9e, 0xb9, 0x9b, 0xf2, 0xb5, 0x38,
  0x7f, 0x41, 0x60, 0xb9, 0xff, 0x1f, 0x6d, 0x39, 0x69, 0xa1, 0x5d, 0xb9,
  0xb2, 0xd6, 0x79, 0xb9, 0x24, 0x1e, 0x47, 0xb9, 0x44, 0xbf, 0x67, 0xb9,
  0x3d, 0x42, 0x8b, 0x39, 0xc6, 0x63, 0x42, 0x39, 0x86, 0xa5, 0x5f, 0xb9,
  0x12, 0xf6, 0x8c, 0x39, 0x3f, 0x4e, 0x99, 0xb9, 0x9e, 0x92, 0x03, 0x38,
  0x41, 0x40, 0x62, 0xb9, 0xd2, 0x54, 0x45, 0x39, 0x06, 0x3d, 0x0c, 0xb9,
  0xf6, 0xb1, 0xca, 0x39, 0xf9, 0xbe, 0xa0, 0x39, 0x8f, 0x50, 0xa2, 0xb9,
  0xcf, 0x25, 0x75, 0x39, 0x09, 0x00, 0xe8, 0x39, 0x8e, 0x6c, 0xcc, 0xb9,
  0x51, 0x0b, 0x9f, 0xb9, 0x2e, 0x28, 0xdd, 0x38, 0xee, 0xc7, 0x39, 0xb9,
  0x86, 0xa0, 0xc1, 0xb9, 0x62, 0x01, 0x62, 0xb8, 0x57, 0xc6, 0xe6, 0xb9,
  0x16, 0x97, 0x80, 0x39, 0x16, 0x96, 0xd3, 0xb5, 0xb6, 0x81, 0x2f, 0xb9,
  0xe5, 0x23, 0x2e, 0x39, 0x41, 0x4e, 0x70, 0xb9, 0xd6, 0xf8, 0xa5, 0x39,
  0xdd, 0x26, 0xaf, 0xb9, 0xaa, 0xae, 0xaf, 0x39, 0xf8, 0x28, 0x5b, 0xb9,
  0x4a, 0x1c, 0xbc, 0x37, 0x7d, 0xe4, 0x99, 0x38, 0xa4, 0x56, 0xca, 0x38,
  0x39, 0x69, 0x6f, 0x39, 0xb7, 0x63, 0x3b, 0xb9, 0x5a, 0xd3, 0xd0, 0xb9,
  0x60, 0x7f, 0xe4, 0x39, 0x9b, 0x7a, 0xeb, 0x39, 0xe1, 0xaf, 0xcf, 0x38,
  0x88, 0x5c, 0x00, 0x39, 0xe9, 0x3c, 0xac, 0xb9, 0xc3, 0x8e, 0xd2, 0x39,
  0x6c, 0x65, 0xd7, 0x39, 0xaa, 0x34, 0xd4, 0x39, 0x18, 0x75, 0x00, 0xb9,
  0xa3, 0xfe, 0x0e, 0xb9, 0xab, 0x09, 0x05, 0x39, 0x34, 0x80, 0xba, 0x39,
  0xff, 0x7e, 0x62, 0xb9, 0xf4, 0x68, 0x9d, 0x38, 0x5a, 0xc4, 0x4a, 0x39,
  0x27, 0x39, 0xe3, 0xb9, 0x73, 0x37, 0x96, 0xb9, 0x3e, 0x21, 0xe9, 0xb9,
  0x29, 0x61, 0x89, 0xb9, 0x9c, 0x50, 0xec, 0xb8, 0xce, 0x3c, 0xe3, 0x39,
  0xd4, 0x5d, 0x81, 0xb9, 0xde, 0xf5, 0x05, 0x38, 0x28, 0xa9, 0xa9, 0xb9,
  0x82, 0x8e, 0xc9, 0xb8, 0x0b, 0x8e, 0xfb, 0xb9, 0x66, 0x88, 0xcc, 0xb9,
  0x00, 0x77, 0x37, 0x39, 0x4b, 0xc5, 0xc9, 0xb8, 0xcc, 0xa8, 0xea, 0x39,
  0x17, 0xbd, 0xbd, 0x38, 0x9c, 0xf4, 0xa0, 0xb9, 0x64, 0x7e, 0x7f, 0x39,
  0x43, 0x2f, 0xaa, 0x39, 0xb8, 0xd2, 0x80, 0x38, 0xbf, 0x89, 0xae, 0xb9,
  0xd4, 0xf9, 0xe8, 0xb9, 0xb1, 0xce, 0xd4, 0x37, 0xb2, 0xdc, 0xaa, 0x39,
  0x7e, 0x2b, 0x44, 0xb9, 0x15, 0x26, 0xfb, 0xb9, 0x37, 0xb3, 0xf8, 0x35,
  0x95, 0xbe, 0x01, 0x39, 0x87, 0xf3, 0x13, 0xb9, 0x0c, 0x81, 0xbf, 0x38,
  0xbc, 0xf4, 0x7f, 0xb9, 0xdb, 0x2b, 0xbf, 0x39, 0x81, 0xa6, 0x5e, 0x39,
  0x44, 0xa7, 0x12, 0x39, 0x61, 0x8d, 0xfa, 0xb9, 0x67, 0xa8, 0x24, 0x39,
  0xcf, 0x98, 0xb6, 0xb8, 0x62, 0x52, 0x9f, 0x39, 0xc5, 0xfa, 0xd5, 0xb9,
  0x8b, 0xa0, 0xa9, 0x39, 0x06, 0x29, 0xdc, 0xb9, 0x06, 0xc8, 0xf2, 0xb9,
  0x3d, 0x1f, 0xb2, 0x39, 0x7a, 0x25, 0x09, 0xb9, 0x7e, 0x2b, 0x86, 0xb9,
  0x7a, 0xd5, 0xbf, 0x39, 0xf5, 0xda, 0x5c, 0xb9, 0xa2, 0x6b, 0x5f, 0x39,
  0xd5, 0x94, 0x80, 0x38, 0xfc, 0x82, 0xac, 0x39, 0x27, 0x93, 0x9f, 0xb9,
  0xe5, 0xe4, 0xa6, 0x39, 0x52, 0x86, 0xab, 0x36, 0xb9, 0xbf, 0x7f, 0x38,
  0xad, 0x99, 0x9e, 0xb9, 0x6d, 0xd6, 0x56, 0xb9, 0xb7, 0x3d, 0x80, 0xb9,
  0x23, 0xda, 0x7d, 0xb9, 0xce, 0x1e, 0xd8, 0xb9, 0x6a, 0x2a, 0x43, 0xb9,
  0x04, 0xcc, 0x66, 0x39, 0xa6, 0xd6, 0x7d, 0xb9, 0x24, 0x39, 0x75, 0xb9,
  0xd2, 0xf9, 0x00, 0xba, 0x31, 0x42, 0x80, 0x39, 0xd5, 0x4f, 0xc1, 0x33,
  0x9e, 0x9f, 0xab, 0x39, 0x7c, 0xf8, 0x27, 0xb9, 0x6c, 0xa2, 0x54, 0xb9,
  0xc7, 0x93, 0xb6, 0xb9, 0xda, 0xa3, 0xd1, 0x39, 0x0b, 0xb2, 0x92, 0xb9,
  0x7b, 0xc2, 0x44, 0x39, 0x9b, 0xee, 0x59, 0x39, 0xa8, 0xbe, 0x31, 0x39,
  0xc5, 0x97, 0xe8, 0x39, 0x87, 0x35, 0x81, 0x39, 0x7e, 0x5a, 0xba, 0xb9,
  0x3a, 0x9f, 0xc3, 0xb9, 0xdd, 0xa3, 0x1a, 0xb9, 0x35, 0xe2, 0x0a, 0xb8,
  0x53, 0x48, 0xc0, 0xb9, 0xa6, 0x44, 0xbb, 0x39, 0x2a, 0x01, 0xa6, 0xb9,
  0xc4, 0xd0, 0xb5, 0xb8, 0x24, 0x9c, 0x98, 0xb9, 0xe3, 0x6a, 0xaf, 0x39,
  0xad, 0x74, 0x91, 0x39, 0x56, 0xc8, 0xbc, 0x38, 0x8b, 0x26, 0xb4, 0x35,
  0x9d, 0x60, 0x44, 0xb9, 0xed, 0x30, 0xc6, 0xb9, 0xc9, 0xeb, 0xf2, 0x38,
  0xb7, 0xbd, 0xe4, 0x38, 0x87, 0xee, 0xc4, 0xb9, 0xf1, 0x47, 0x92, 0x38,
  0xb9, 0xb8, 0xeb, 0xb9, 0x6f, 0x28, 0xd9, 0xb9, 0x0d, 0x55, 0x5a, 0x38,
  0x62, 0xab, 0xc7, 0x39, 0xcb, 0xe2, 0xba, 0xb9, 0x96, 0xbc, 0x7c, 0x39,
  0x3f, 0xf4, 0x73, 0xb9, 0x31, 0xda, 0xa8, 0x39, 0xe3, 0xe0, 0xc6, 0x39,
  0x7e, 0xf7, 0xa0, 0x39, 0x31, 0xf2, 0xd6, 0xb9, 0x34, 0x4c, 0xa1, 0xb4,
  0x49, 0x28, 0xb0, 0xb9, 0x67, 0x53, 0x56, 0x38, 0x86, 0xc3, 0x07, 0xb9,
  0x28, 0x2f, 0xfd, 0xb9, 0xe8, 0xba, 0x9e, 0x39, 0xad, 0x45, 0xd4, 0x39,
  0xea, 0x52, 0x00, 0xb9, 0x1c, 0x5f, 0xde, 0xb8, 0xda, 0x7e, 0xf7, 0x38,
  0x3f, 0x80, 0x32, 0x39, 0xd4, 0x59, 0x57, 0x39, 0xaf, 0xf9, 0x95, 0x39,
  0x1e, 0xa3, 0xde, 0xb9, 0x4c, 0x23, 0x56, 0x39, 0xc9, 0x01, 0x82, 0x38,
  0x51, 0x65, 0xf0, 0xb9, 0x69, 0x2a, 0xa8, 0x39, 0x89, 0xb5, 0xaf, 0xb9,
  0x56, 0xf8, 0x50, 0xb9, 0x14, 0x42, 0xda, 0x38, 0x94, 0x63, 0xd4, 0x39,
  0xf5, 0xd3, 0xdb, 0x39, 0xc6, 0xab, 0x01, 0x39, 0xb9, 0x48, 0x4f, 0xb9,
  0x38, 0xf7, 0xa1, 0x38, 0xc8, 0xfb, 0xce, 0xb9, 0x40, 0x50, 0x32, 0xb9,
  0xaa, 0x21, 0x69, 0xb9, 0xeb, 0x43, 0xa0, 0xb9, 0x18, 0x06, 0xed, 0xb9,
  0x73, 0x3c, 0xb5, 0xb9, 0xca, 0x96, 0xb4, 0xb9, 0xad, 0x02, 0xf9, 0xb9,
  0xcd, 0xb7, 0x74, 0xb8, 0x3b, 0xd8, 0xb1, 0xb9, 0x99, 0x2a, 0xd6, 0x39,
  0x70, 0xf6, 0xa0, 0xb9, 0x41, 0x87, 0xbd, 0x38, 0xdf, 0xed, 0x92, 0x39,
  0xe4, 0xdc, 0x0e, 0xb8, 0x46, 0x73, 0x86, 0x39, 0xd3, 0x1c, 0xc5, 0x39,
  0xdd, 0x5b, 0x31, 0xb9, 0x44, 0xb0, 0x28, 0x39, 0xf1, 0x51, 0xe1, 0xb9,
  0x3d, 0x9b, 0x58, 0xb9, 0x4e, 0x6a, 0xa7, 0x39, 0xbb, 0xd7, 0xd7, 0xb9,
  0xae, 0x12, 0x18, 0x39, 0x28, 0x37, 0x23, 0x38, 0x6a, 0xf6, 0x92, 0x36,
  0x52, 0xbe, 0x95, 0xb8, 0x69, 0x5f, 0x9e, 0x37, 0x9c, 0x24, 0x47, 0xb9,
  0xba, 0xc5, 0xf4, 0xb9, 0x12, 0x98, 0xc8, 0x39, 0x6e, 0x32, 0x30, 0x39,
  0x54, 0x52, 0x43, 0xb9, 0x14, 0x43, 0xa7, 0xb9, 0x1d, 0xf9, 0xda, 0xb8,
  0xee, 0xa1, 0xaf, 0xb8, 0x82, 0xb5, 0x60, 0x38, 0xa0, 0x4b, 0xd1, 0x39,
  0x7d, 0xe5, 0xf9, 0x37, 0xb7, 0x8e, 0xa0, 0x39, 0x5b, 0xa4, 0xe6, 0xb8,
  0x1c, 0x7e, 0xa7, 0xb9, 0x23, 0x49, 0xe2, 0xb8, 0xdf, 0xd9, 0x34, 0xb8,
  0x58, 0xf2, 0x73, 0x39, 0xa1, 0xf9, 0x1c, 0x39, 0x82, 0x53, 0xa8, 0x39,
  0xaf, 0x09, 0x1d, 0xb9, 0x4d, 0x1e, 0xa0, 0x39, 0x0e, 0x61, 0xdc, 0xb9,
  0x55, 0xcc, 0x7c, 0xb9, 0x90, 0xca, 0x2e, 0x37, 0x55, 0x5e, 0x56, 0xb9,
  0x4e, 0xb3, 0xe1, 0xb9, 0x75, 0x00, 0x05, 0xba, 0x3a, 0xa0, 0xd4, 0xb9,
  0xd2, 0x1a, 0xbc, 0x39, 0x97, 0x9f, 0xfa, 0xb7, 0x3d, 0x09, 0x70, 0xb9,
  0x3f, 0xdb, 0x22, 0xb9, 0x2b, 0x93, 0x8f, 0x39, 0x48, 0xac, 0x89, 0xb8,
  0xa8, 0x1b, 0xd1, 0xb5, 0x3a, 0x35, 0x44, 0xb8, 0x04, 0x6a, 0xe7, 0xb9,
  0x3c, 0x7d, 0xc7, 0x39, 0x7b, 0xdd, 0x90, 0xb9, 0xc9, 0x4a, 0xe1, 0xb8,
  0xe0, 0x66, 0x39, 0x39, 0x63, 0xaf, 0x2e, 0xb9, 0x00, 0x8f, 0x7f, 0x39,
  0xae, 0x09, 0x34, 0xb9, 0x25, 0x1f, 0x40, 0xb9, 0xbc, 0x4b, 0x52, 0x39,
  0x77, 0xcf, 0x12, 0x39, 0x62, 0x65, 0x2f, 0x38, 0x12, 0x3e, 0x88, 0x39,
  0x41, 0x62, 0x30, 0xb9, 0x02, 0xd3, 0xb9, 0x39, 0x1e, 0xd2, 0x87, 0xb9,
  0x1e, 0x37, 0x2e, 0x38, 0xd3, 0x10, 0xaa, 0x37, 0x45, 0x3f, 0x48, 0x39,
  0xe2, 0x12, 0xd5, 0xb9, 0x16, 0xf6, 0x26, 0x39, 0x49, 0x33, 0xd7, 0xb9,
  0xae, 0x0f, 0x6c, 0x38, 0x29, 0x64, 0x5f, 0x39, 0x20, 0xf6, 0xfd, 0x38,
  0xb4, 0x32, 0x06, 0xb9, 0xc6, 0xa6, 0x9f, 0x38, 0xcc, 0x88, 0x53, 0xb9,
  0x1c, 0x46, 0xc0, 0xb9, 0x17, 0xe7, 0xd7, 0xb9, 0x14, 0x21, 0x5d, 0x38,
  0xef, 0xe4, 0x2e, 0xb8, 0xf6, 0xe2, 0xfe, 0xb9, 0xa4, 0xa8, 0x01, 0xb9,
  0x15, 0x42, 0x10, 0xb9, 0x53, 0x49, 0x01, 0xba, 0x25, 0x5c, 0x40, 0xb9,
  0x6c, 0x77, 0x92, 0x39, 0xbc, 0xf5, 0xe4, 0xb9, 0x75, 0xec, 0xa3, 0xb9,
  0x2a, 0x4d, 0xcf, 0xb9, 0xf3, 0xf3, 0x52, 0xb8, 0x4d, 0x7e, 0x60, 0x39,
  0x28, 0x31, 0xa6, 0xb9, 0x56, 0x31, 0xfc, 0xb9, 0x7e, 0xfb, 0xfd, 0xb9,
  0xf1, 0x56, 0x26, 0x39, 0x14, 0xcd, 0xdf, 0xb9, 0xf5, 0xcd, 0xfe, 0xb7,
  0x15, 0x68, 0x93, 0x39, 0xcc, 0x92, 0xf8, 0xb9, 0x98, 0xd2, 0xe9, 0x38,
  0xc0, 0xee, 0x04, 0xba, 0x94, 0xee, 0x5f, 0xb9, 0xbe, 0x05, 0x97, 0x38,
  0x36, 0x8d, 0x96, 0x39, 0xf7, 0xa8, 0x15, 0xb8, 0x68, 0x2f, 0x92, 0x39,
  0xde, 0x0b, 0x9b, 0x39, 0x7a, 0x05, 0xc9, 0x39, 0xa8, 0xb7, 0x24, 0x39,
  0x06, 0x48, 0x6e, 0x39, 0x6f, 0xc2, 0x4c, 0x36, 0x1d, 0xf1, 0x73, 0x39,
  0xef, 0x99, 0x6e, 0xb9, 0x3e, 0xd5, 0xb2, 0x39, 0x84, 0x4c, 0x4e, 0xb9,
  0x1c, 0x92, 0xc7, 0xb9, 0xef, 0xa2, 0xb3, 0x39, 0x90, 0x84, 0x7d, 0xb9,
  0x2b, 0x81, 0xef, 0xb9, 0x75, 0xec, 0x0c, 0x39, 0xd0, 0xa9, 0xc2, 0xb9,
  0xa0, 0x72, 0x72, 0x39, 0x55, 0xed, 0xa5, 0xb7, 0x30, 0x3f, 0xd9, 0x38,
  0x7f, 0x90, 0x9a, 0x39, 0x7d, 0x6e, 0x5e, 0x38, 0xa5, 0x55, 0xe8, 0xb8,
  0xa5, 0x5a, 0x9f, 0xb8, 0xe9, 0x34, 0x4d, 0x39, 0xff, 0x38, 0x01, 0x39,
  0xbe, 0x75, 0xa3, 0x39, 0xdb, 0x64, 0x16, 0x38, 0x99, 0x69, 0xa6, 0x37,
  0x97, 0x81, 0x03, 0xba, 0x80, 0x8b, 0x88, 0x37, 0x8a, 0x7c, 0xbc, 0xb9,
  0x71, 0x26, 0x8c, 0xb9, 0xc1, 0x79, 0x02, 0xb9, 0x6c, 0x42, 0x2d, 0x39,
  0x98, 0x1d, 0x93, 0xb9, 0x8f, 0x04, 0x17, 0x39, 0xbe, 0x35, 0x02, 0xba,
  0xc5, 0x03, 0xc8, 0xb9, 0x83, 0xfe, 0x2c, 0x38, 0x2b, 0x3d, 0x1a, 0xb7,
  0xfc, 0x2f, 0x7d, 0xb9, 0x2f, 0xdf, 0xc5, 0xb8, 0x2d, 0xcf, 0xb1, 0x39,
  0xb5, 0x62, 0xaf, 0x39, 0xc0, 0xe9, 0x8b, 0x38, 0xb5, 0xd7, 0x74, 0x39,
  0x6b, 0x2a, 0xdf, 0xb8, 0x63, 0xd3, 0xb2, 0xb8, 0x34, 0xc2, 0x80, 0xb9,
  0x3e, 0x77, 0x98, 0xb8, 0xe0, 0x88, 0xb1, 0x39, 0x85, 0x8b, 0x43, 0x39,
  0xd1, 0xe2, 0x3c, 0x39, 0x16, 0xdb, 0xe5, 0xb9, 0x25, 0xfd, 0xeb, 0xb9,
  0xc0, 0x61, 0xd5, 0xb9, 0xf0, 0x72, 0x8a, 0x38, 0x54, 0x73, 0xe1, 0x39,
  0xd6, 0x67, 0x29, 0xb9, 0xc7, 0x2a, 0x33, 0x39, 0x9f, 0xfa, 0xc5, 0x39,
  0x06, 0x78, 0x16, 0xb9, 0x1d, 0x9e, 0x98, 0x39, 0x16, 0xba, 0xa3, 0xb9,
  0x3a, 0x4c, 0xd2, 0xb9, 0xcc, 0x81, 0x86, 0xb9, 0xf6, 0x9e, 0xd8, 0x39,
  0x34, 0x9c, 0xbc, 0xb9, 0x2f, 0x06, 0x82, 0xb8, 0xfa, 0x46, 0x38, 0xb9,
  0x62, 0x2e, 0xbc, 0xb8, 0xcc, 0x16, 0x2b, 0xb9, 0xf7, 0x0c, 0x9e, 0xb9,
  0xee, 0xc6, 0x28, 0xb9, 0x6d, 0x92, 0xca, 0x39, 0x52, 0x5d, 0x9e, 0xb7,
  0xb5, 0xa2, 0x3a, 0x39, 0x59, 0xe9, 0x14, 0x39, 0xe0, 0xc6, 0xc7, 0x39,
  0x89, 0x85, 0x14, 0xb9, 0xc1, 0xcf, 0x87, 0xb9, 0xf2, 0x91, 0xff, 0x38,
  0x42, 0x39, 0xa5, 0x39, 0x28, 0x50, 0xd1, 0xb9, 0x01, 0xa6, 0xfd, 0xb5,
  0xbc, 0x7d, 0x4c, 0xb9, 0x7c, 0xb7, 0xd9, 0xb9, 0xd4, 0x71, 0xba, 0x39,
  0x20, 0x0e, 0x59, 0x39, 0x99, 0xef, 0xa9, 0xb9, 0x8f, 0xc8, 0x1d, 0xb9,
  0x40, 0xe9, 0x83, 0xb9, 0x00, 0xb4, 0xa6, 0x39, 0xf2, 0xa2, 0x89, 0x39,
  0xbc, 0x43, 0xa8, 0xb8, 0x37, 0xdd, 0xe7, 0xb8, 0x3d, 0x81, 0xc0, 0x38,
  0x8e, 0x50, 0x96, 0x39, 0x2e, 0xfc, 0xdc, 0xb9, 0xbb, 0x08, 0xf1, 0xb9,
  0xb6, 0x5f, 0x04, 0xb9, 0xbc, 0xdb, 0xbe, 0xb8, 0x3a, 0xf3, 0xd2, 0xb9,
  0x6b, 0xba, 0xd9, 0xb8, 0xb5, 0x26, 0x4f, 0xb9, 0x4d, 0xb4, 0xb8, 0xb9,
  0xdb, 0xd0, 0x86, 0x39, 0x2c, 0x02, 0x8a, 0xb9, 0x2c, 0x4a, 0xc5, 0x37,
  0xcc, 0x14, 0x9e, 0xb9, 0x3d, 0x7d, 0xa0, 0x39, 0xcd, 0x38, 0xb4, 0x37,
  0x1c, 0x4c, 0xa0, 0xb7, 0x4a, 0x48, 0xd6, 0x39, 0x0b, 0x86, 0xb7, 0xb9,
  0xe6, 0x79, 0xb2, 0x39, 0xae, 0xe6, 0x0f, 0xb8, 0xd0, 0xef, 0x9d, 0x39,
  0x59, 0xab, 0x82, 0xb9, 0x8d, 0xaf, 0x97, 0xb9, 0x67, 0x1b, 0x8c, 0xb8,
  0x4b, 0xc3, 0xb3, 0x38, 0xde, 0xce, 0x96, 0x39, 0x07, 0x53, 0x36, 0x39,
  0x8c, 0x1f, 0xfe, 0xb9, 0x81, 0x0a, 0xa8, 0x39, 0x74, 0x78, 0xfe, 0x38,
  0xc5, 0x89, 0xd2, 0x38, 0x84, 0xfe, 0x1e, 0xb9, 0xed, 0x78, 0x10, 0xb9,
  0xae, 0x78, 0x64, 0xb8, 0xeb, 0xde, 0xfe, 0xb9, 0xba, 0xd6, 0x96, 0x39,
  0x81, 0xdd, 0x78, 0xb7, 0x43, 0x7b, 0x4e, 0x39, 0x9e, 0xf2, 0xac, 0xb8,
  0x9a, 0x1d, 0x1f, 0xb9, 0x8e, 0xa8, 0xd0, 0x37, 0x2c, 0xae, 0xa3, 0x38,
  0x7f, 0xf0, 0x99, 0xb9, 0x31, 0x85, 0xa8, 0x39, 0x78, 0xb0, 0xd6, 0x37,
  0x24, 0x65, 0x5c, 0xb8, 0x85, 0x1a, 0x97, 0xb9, 0x3d, 0x7d, 0x1a, 0xb9,
  0xa3, 0x47, 0x86, 0xb9, 0xce, 0x8b, 0x56, 0xb9, 0x9a, 0x5b, 0x9d, 0x39,
  0xd4, 0x0b, 0x93, 0xb9, 0x70, 0x8a, 0xe5, 0x39, 0x31, 0xe8, 0x23, 0xb7,
  0xea, 0x7d, 0x69, 0x39, 0xce, 0xd0, 0x6e, 0xb8, 0xc8, 0xa7, 0xfe, 0x38,
  0xfa, 0x4f, 0x80, 0x39, 0xc0, 0x37, 0xe2, 0x39, 0xbf, 0xcd, 0xd8, 0xb9,
  0x5b, 0x70, 0x8f, 0x39, 0xd3, 0xdd, 0xc9, 0x39, 0x45, 0xb5, 0x01, 0xb9,
  0xf7, 0x2e, 0xe3, 0x39, 0x9a, 0xb8, 0x5b, 0x39, 0x9d, 0x38, 0xd3, 0xb9,
  0xf9, 0x88, 0xa5, 0x39, 0xd6, 0x4f, 0x07, 0xb9, 0x90, 0x44, 0x83, 0xb6,
  0x6d, 0x96, 0x08, 0xb9, 0x07, 0x47, 0x67, 0xb9, 0xf7, 0xf9, 0x5f, 0xb9,
  0x55, 0xde, 0x00, 0xb8, 0x17, 0xdc, 0x10, 0xb9, 0x0e, 0x04, 0xa4, 0x38,
  0x36, 0x66, 0xb0, 0x38, 0x1e, 0x2f, 0xbf, 0x39, 0x6e, 0x09, 0xbe, 0x39,
  0x1b, 0xd0, 0xb8, 0xb9, 0xd0, 0x4e, 0xf4, 0xb9, 0x51, 0xbd, 0xd8, 0x39,
  0x37, 0x24, 0x16, 0x39, 0xd0, 0x45, 0x03, 0x39, 0xab, 0xf6, 0x4a, 0x39,
  0x31, 0x14, 0x86, 0xb9, 0xa4, 0xc0, 0xbd, 0x39, 0xfd, 0xd6, 0x77, 0x39,
  0x34, 0x27, 0xaa, 0x39, 0x20, 0x29, 0xd7, 0x39, 0x24, 0xb2, 0x92, 0x39,
  0x0b, 0xac, 0xc9, 0x39, 0x78, 0x61, 0xbb, 0xb9, 0x17, 0x1d, 0x9a, 0x38,
  0xd3, 0xc2, 0x3d, 0x39, 0x9d, 0x1f, 0x1e, 0x38, 0xce, 0x93, 0x52, 0xb9,
  0x41, 0x40, 0x2e, 0xb9, 0xf1, 0x41, 0x75, 0xb8, 0x0d, 0x43, 0x78, 0xb8,
  0xa0, 0xdf, 0x27, 0x39, 0xb2, 0xbb, 0x9d, 0xb9, 0x88, 0x48, 0xb5, 0x39,
  0x8f, 0xef, 0x11, 0xb9, 0x03, 0x01, 0x84, 0x39, 0x09, 0x45, 0xa1, 0xb9,
  0x0e, 0xd2, 0xbf, 0x39, 0x23, 0x60, 0xd0, 0xb9, 0xc5, 0x15, 0xb7, 0xb9,
  0x07, 0x02, 0xd2, 0x39, 0x6f, 0x5f, 0xcd, 0x39, 0x44, 0x2d, 0xd5, 0xb9,
  0x9b, 0xfe, 0xcb, 0x39, 0x88, 0x57, 0xb8, 0xb9, 0x53, 0x13, 0xca, 0xb9,
  0xb9, 0x37, 0x57, 0xb9, 0xd5, 0x9c, 0xe5, 0xb9, 0x5a, 0x17, 0xc3, 0xb8,
  0x75, 0xef, 0xc7, 0xb9, 0x3f, 0x2d, 0x2f, 0x39, 0x36, 0xc6, 0xb2, 0xb9,
  0xdc, 0x08, 0xbf, 0x39, 0x16, 0x32, 0x9d, 0xb9, 0xa6, 0x7d, 0x71, 0x38,
  0x8d, 0x6b, 0x09, 0x39, 0x6b, 0xd5, 0xde, 0xb9, 0x7b, 0xe1, 0x83, 0xb9,
  0x37, 0x88, 0xe6, 0x39, 0xc4, 0xd5, 0xfe, 0x38, 0xd6, 0x52, 0xdc, 0xb9,
  0x07, 0xc2, 0xb3, 0xb9, 0x02, 0xd3, 0xa1, 0xb8, 0xd2, 0xa2, 0x3f, 0x39,
  0x51, 0xc7, 0xce, 0x39, 0x25, 0x53, 0x85, 0x39, 0x28, 0x57, 0x18, 0xb8,
  0xeb, 0x7b, 0x24, 0x39, 0xde, 0x9f, 0x04, 0xba, 0x4e, 0x0d, 0x54, 0xb8,
  0x5f, 0x7d, 0xba, 0x39, 0x36, 0x14, 0xcc, 0x39, 0xd6, 0xec, 0x6d, 0x39,
  0xf6, 0xcc, 0x87, 0x39, 0x1e, 0x3f, 0x6f, 0xb9, 0x7f, 0x35, 0xc6, 0x37,
  0xbe, 0x5c, 0x85, 0x39, 0x1c, 0xe7, 0x47, 0xb7, 0x33, 0x5b, 0x52, 0xb9,
  0xfd, 0x08, 0xdc, 0xb9, 0x90, 0x7f, 0xdf, 0x39, 0x79, 0xf4, 0x63, 0x38,
  0xe5, 0xf3, 0xe5, 0xb9, 0x1f, 0xb6, 0x2b, 0xb7, 0xbc, 0x8d, 0x21, 0xb9,
  0x80, 0x7e, 0x34, 0x38, 0xf4, 0x11, 0x43, 0x38, 0xf4, 0x8a, 0x99, 0x39,
  0x54, 0x3c, 0xbe, 0xb9, 0xfe, 0xfc, 0x9e, 0xb9, 0xe8, 0x0c, 0xe0, 0xb9,
  0x64, 0x5b, 0x8d, 0x39, 0x11, 0x43, 0xde, 0x39, 0x8d, 0xa9, 0x49, 0x39,
  0x39, 0x66, 0x4a, 0xb9, 0x0e, 0xdc, 0xfe, 0x38, 0xd3, 0xe3, 0x99, 0xb9,
  0x29, 0x45, 0xf1, 0xb9, 0x59, 0x6a, 0x55, 0x39, 0x77, 0xf0, 0xc3, 0x39,
  0xee, 0x80, 0x57, 0xb7, 0xd5, 0xa9, 0x90, 0xb9, 0x0b, 0xba, 0xb9, 0x38,
  0xfa, 0xcc, 0xd3, 0xb9, 0xbb, 0x3c, 0xaa, 0x39, 0xca, 0xef, 0x03, 0x39,
  0x51, 0xd5, 0xfd, 0xb9, 0x3f, 0x9d, 0x02, 0xb9, 0xb0, 0x1e, 0x81, 0x39,
  0xd5, 0x8f, 0x3c, 0xb9, 0xe6, 0x6c, 0xde, 0x39, 0x10, 0x10, 0x69, 0xb8,
  0x4d, 0xfe, 0xc5, 0x39, 0x01, 0xb2, 0xb5, 0xb9, 0x3b, 0x7b, 0xd0, 0xb8,
  0xf8, 0xab, 0x20, 0xb9, 0xc6, 0x51, 0xed, 0x38, 0x1f, 0x97, 0x4f, 0x38,
  0xe3, 0x30, 0xdc, 0x39, 0x84, 0xcb, 0x5c, 0xb9, 0x6f, 0xa3, 0xba, 0x39,
  0x21, 0x23, 0x9c, 0xb9, 0x96, 0x2f, 0x83, 0xb9, 0x5f, 0xf7, 0xbd, 0x39,
  0xee, 0xd8, 0x7e, 0x38, 0x80, 0x4c, 0xb9, 0xb8, 0x09, 0xce, 0xdb, 0xb8,
  0xc7, 0x7d, 0xb9, 0x39, 0x53, 0xc4, 0xd0, 0x39, 0xe5, 0x0f, 0xd5, 0xb9,
  0x5c, 0x05, 0x8f, 0x39, 0xb7, 0x92, 0x48, 0x39, 0x84, 0x05, 0x48, 0xb9,
  0x64, 0x47, 0x92, 0xb9, 0xcc, 0xe7, 0x8e, 0xb9, 0xe2, 0xc7, 0xb8, 0x39,
  0xdb, 0x77, 0x38, 0x38, 0xcc, 0xb5, 0xba, 0xb9, 0x6d, 0x84, 0x17, 0x39,
  0x40, 0x2c, 0xc4, 0x39, 0x2e, 0x74, 0x40, 0xb7, 0xbd, 0x69, 0xe3, 0x39,
  0xf9, 0x64, 0xb9, 0xb9, 0x81, 0x07, 0xf7, 0xb9, 0x91, 0x5f, 0xb7, 0x39,
  0x54, 0x7b, 0xaa, 0x39, 0x42, 0xc6, 0xf6, 0x38, 0xe5, 0x77, 0x84, 0x38,
  0xbf, 0x8a, 0x6f, 0x39, 0x4d, 0xa7, 0x36, 0x39, 0x8c, 0x19, 0xc9, 0xb9,
  0x2b, 0xe0, 0x46, 0xb9, 0x13, 0x20, 0xe5, 0x37, 0xca, 0xa5, 0x58, 0xb9,
  0x56, 0x32, 0x99, 0xb9, 0x79, 0xf5, 0x29, 0xb8, 0x6b, 0x74, 0x8d, 0xb9,
  0x86, 0xcb, 0xd1, 0x38, 0x14, 0x23, 0xbd, 0x39, 0x56, 0x22, 0xed, 0x38,
  0x1b, 0xe3, 0xf6, 0x38, 0x59, 0x1c, 0x98, 0xb9, 0xac, 0x2c, 0xf0, 0xb9,
  0x48, 0x45, 0x54, 0x39, 0xc5, 0xed, 0xa5, 0xb9, 0xa1, 0xe9, 0xba, 0xb9,
  0xb0, 0x59, 0x9b, 0xb8, 0x31, 0x5b, 0xc6, 0x39, 0x3f, 0x13, 0xd1, 0xb9,
  0xeb, 0x92, 0x50, 0xb9, 0x6f, 0x73, 0x25, 0x39, 0xc5, 0x00, 0xbe, 0x38,
  0x29, 0xcc, 0x08, 0xb8, 0x74, 0x95, 0xcc, 0x39, 0x72, 0x9d, 0x2a, 0xb9,
  0x90, 0x8b, 0xd7, 0xb9, 0x00, 0x8c, 0x21, 0xb9, 0x3e, 0x4a, 0x01, 0xba,
  0xb6, 0x27, 0xb7, 0xb9, 0x15, 0x3a, 0x81, 0xb9, 0x98, 0x0b, 0xb5, 0xb8,
  0xbe, 0xad, 0x86, 0xb8, 0xbc, 0x39, 0xcb, 0xb9, 0x62, 0x66, 0x2c, 0x38,
  0x05, 0xe1, 0xc3, 0x39, 0x89, 0x4c, 0x2a, 0x39, 0xee, 0x03, 0x24, 0xb9,
  0xb2, 0x5b, 0xd3, 0xb9, 0xed, 0x5c, 0xb9, 0x39, 0x12, 0xb0, 0x97, 0xb9,
  0x9b, 0x1d, 0x9e, 0xb9, 0x95, 0x41, 0x63, 0xb8, 0x7b, 0x9c, 0x1f, 0xb9,
  0x53, 0x07, 0x94, 0xb9, 0xe8, 0x67, 0x55, 0xb9, 0xda, 0x6f, 0x75, 0x39,
  0x98, 0x34, 0x2d, 0x39, 0xef, 0x7a, 0xad, 0xb9, 0x38, 0x0a, 0x11, 0xb9,
  0x56, 0x1d, 0x00, 0xba, 0x1e, 0x1d, 0xe5, 0xb9, 0x8c, 0x03, 0xe9, 0xb9,
  0xdd, 0x2f, 0x9f, 0xb9, 0xe7, 0xad, 0xe0, 0xb9, 0x13, 0x7f, 0x40, 0xb9,
  0x85, 0x35, 0x8d, 0xb9, 0x9c, 0x2b, 0xe0, 0x38, 0xbf, 0x0a, 0x2a, 0xb9,
  0x87, 0x58, 0x70, 0xb9, 0xfb, 0x21, 0x3c, 0x39, 0x96, 0x05, 0x17, 0x39,
  0xc6, 0xe2, 0x84, 0x39, 0x8f, 0x2b, 0x1a, 0x39, 0xdd, 0xfb, 0xac, 0x39,
  0x6f, 0x93, 0x8e, 0x39, 0x92, 0xbf, 0x57, 0xb9, 0x17, 0x41, 0xc7, 0x38,
  0x9a, 0x67, 0xf1, 0xb7, 0x16, 0x0b, 0x1d, 0xb9, 0x86, 0x1c, 0xfc, 0xb9,
  0xa0, 0xb4, 0x7e, 0xb8, 0xad, 0xfe, 0x82, 0x38, 0xd4, 0x3b, 0x3b, 0xb8,
  0x78, 0x5f, 0xc8, 0xb9, 0x30, 0xf0, 0xa4, 0x39, 0x2a, 0x51, 0xe4, 0xb9,
  0x62, 0x42, 0xb1, 0x39, 0xb9, 0xb0, 0x7c, 0x39, 0x3d, 0x3a, 0xb8, 0x39,
  0x37, 0x43, 0xaf, 0xb9, 0x23, 0x1d, 0xc2, 0x39, 0x15, 0x47, 0xd1, 0x39,
  0x21, 0x59, 0xa4, 0x39, 0x37, 0x97, 0xa3, 0x39, 0x45, 0xa0, 0x2b, 0xb9,
  0x5d, 0x34, 0xc0, 0xb9, 0xfa, 0x8c, 0xe4, 0x39, 0xc3, 0x95, 0x98, 0x39,
  0xf4, 0x01, 0x9c, 0xb9, 0x83, 0x60, 0x15, 0x38, 0x65, 0xec, 0x5d, 0x39,
  0x49, 0x61, 0xce, 0x37, 0xd8, 0x4a, 0xd1, 0xb9, 0x4e, 0xac, 0xce, 0xb9,
  0xf2, 0x85, 0x87, 0xb8, 0xdb, 0x17, 0x02, 0xb9, 0xe8, 0x3e, 0xb3, 0x39,
  0x55, 0xe0, 0xea, 0xb9, 0xd8, 0xec, 0xff, 0xb9, 0x23, 0x16, 0x8c, 0x39,
  0xe6, 0xdf, 0xbb, 0x39, 0x51, 0x56, 0xe2, 0xb7, 0xd6, 0x7b, 0x83, 0xb9,
  0xc8, 0x87, 0x32, 0xb9, 0xdb, 0x67, 0xe1, 0x39, 0xc5, 0xe5, 0x52, 0xb9,
  0xe2, 0x7c, 0xe1, 0x38, 0x78, 0x0b, 0xe1, 0x39, 0x3d, 0x91, 0x1e, 0xb9,
  0x10, 0x26, 0x14, 0xb8, 0x1d, 0xb7, 0x81, 0xb8, 0x2a, 0xaa, 0xfa, 0xb9,
  0x98, 0x6a, 0x89, 0x39, 0x4b, 0x4e, 0x9a, 0xb8, 0x6d, 0x25, 0xa8, 0x39,
  0x83, 0xce, 0x77, 0xb9, 0x35, 0xc7, 0x8d, 0x39, 0xf6, 0xd4, 0x39, 0x39,
  0xc1, 0xfb, 0xcd, 0xb9, 0x39, 0x32, 0xc7, 0xb8, 0x77, 0x2d, 0x49, 0x39,
  0xb0, 0x46, 0xb4, 0x38, 0x43, 0xdd, 0x62, 0x39, 0xb2, 0x6c, 0xa5, 0x38,
  0x31, 0x40, 0x86, 0x39, 0x4e, 0x4a, 0xe7, 0x39, 0x5a, 0x8c, 0x47, 0xb7,
  0xcb, 0xb7, 0x74, 0x39, 0xd6, 0xc5, 0x5b, 0x37, 0x80, 0x9b, 0xeb, 0xb9,
  0xa0, 0x53, 0xd4, 0xb9, 0x25, 0xe9, 0x26, 0xb9, 0x3b, 0x85, 0xa7, 0xb9,
  0xb3, 0x3d, 0xfa, 0xb7, 0xf6, 0x09, 0x26, 0xb9, 0x6f, 0xe1, 0xd9, 0x39,
  0x1a, 0x42, 0x94, 0x38, 0x55, 0xcc, 0x49, 0xb8, 0xe4, 0x33, 0x93, 0xb9,
  0xf5, 0x83, 0x90, 0x39, 0xeb, 0x79, 0x80, 0xb9, 0x13, 0x01, 0x15, 0xb9,
  0x38, 0x9b, 0xab, 0x38, 0xca, 0x64, 0x82, 0xb8, 0xd8, 0x17, 0x14, 0x38,
  0xf5, 0x9d, 0xbc, 0x39, 0xe4, 0xdb, 0x72, 0x39, 0x12, 0xdc, 0x79, 0xb9,
  0x4b, 0xf2, 0xa2, 0xb9, 0x36, 0x07, 0xbe, 0xb9, 0x4c, 0x35, 0xc4, 0x39,
  0x12, 0xbf, 0x60, 0x39, 0xaf, 0xef, 0x51, 0xb9, 0xe8, 0xf0, 0x5a, 0x38,
  0xe7, 0xba, 0xe5, 0xb7, 0x97, 0xc9, 0x8b, 0xb7, 0x28, 0x06, 0x80, 0x38,
  0x46, 0xb2, 0x27, 0x38, 0x80, 0x5b, 0xb2, 0xb8, 0x6a, 0x2d, 0x48, 0xb9,
  0x0c, 0xe5, 0x82, 0xb9, 0xe4, 0x94, 0xee, 0xb9, 0xc2, 0x46, 0x2c, 0xb9,
  0xb5, 0xa4, 0x4c, 0xb9, 0x18, 0xa5, 0x8c, 0xb9, 0x5e, 0xb3, 0x27, 0xb9,
  0x69, 0xf7, 0xc2, 0xb9, 0xee, 0xe7, 0x4b, 0xb9, 0x5c, 0xee, 0xe4, 0xb8,
  0xe7, 0x7c, 0x4e, 0xb9, 0xf3, 0x5e, 0xd9, 0x39, 0x31, 0xd9, 0xf5, 0xb8,
  0xfd, 0x2b, 0x05, 0x38, 0x4d, 0x7b, 0x07, 0x38, 0xb3, 0x0c, 0xc2, 0x38,
  0xd8, 0xf7, 0xca, 0x39, 0xfb, 0x9e, 0x6b, 0x37, 0x1b, 0xb6, 0xac, 0xb8,
  0x8c, 0x51, 0x7b, 0xb9, 0x60, 0xeb, 0x0c, 0x39, 0x57, 0x9b, 0xaf, 0xb9,
  0xd1, 0x6c, 0xab, 0xb9, 0xaf, 0xc6, 0xee, 0xb9, 0xc8, 0x67, 0xc6, 0x38,
  0xa0, 0x5a, 0xd7, 0x38, 0xe3, 0x1d, 0xc4, 0x39, 0x4a, 0xe9, 0xdd, 0x39,
  0xa0, 0xf5, 0x40, 0x39, 0xee, 0xbb, 0x61, 0x38, 0x64, 0xdc, 0xa1, 0x37,
  0xfd, 0x00, 0x98, 0xb8, 0x89, 0xa1, 0xd2, 0xb9, 0x6d, 0xf2, 0xd5, 0x39,
  0xb4, 0xf7, 0x77, 0xb8, 0x9d, 0xae, 0xe2, 0x39, 0x8d, 0x6c, 0xb6, 0xb9,
  0x81, 0x2a, 0xfd, 0xb9, 0x33, 0xeb, 0xba, 0x39, 0x6a, 0xae, 0x23, 0x39,
  0x91, 0xfe, 0xc2, 0x39, 0xc5, 0x64, 0x48, 0xb7, 0x4f, 0x6a, 0xf0, 0xb8,
  0x28, 0xb3, 0xb9, 0xb9, 0x80, 0x34, 0x8d, 0x39, 0x3e, 0x20, 0xde, 0x39,
  0xf5, 0xab, 0x7a, 0xb9, 0x97, 0x37, 0xf5, 0xb9, 0x56, 0x08, 0x76, 0x38,
  0xbc, 0x6e, 0x74, 0xb8, 0x0e, 0x87, 0xb4, 0x39, 0x56, 0x68, 0x23, 0xb9,
  0x1c, 0x41, 0xc5, 0xb9, 0x88, 0xd6, 0xde, 0xb9, 0x3c, 0xad, 0x74, 0xb9,
  0xa6, 0x16, 0x27, 0xb9, 0x8c, 0x3b, 0x03, 0xba, 0x13, 0x5f, 0x76, 0x39,
  0xb9, 0x43, 0x8e, 0xb9, 0xb0, 0x90, 0xb1, 0x39, 0x27, 0xa3, 0x91, 0xb9,
  0x84, 0x36, 0x2b, 0x39, 0xc4, 0xb7, 0xdb, 0xb8, 0xdf, 0xc3, 0x8e, 0xb8,
  0x72, 0x57, 0x20, 0x39, 0xae, 0xf9, 0x9c, 0x39, 0x1d, 0x1e, 0x43, 0x39,
  0x12, 0x0f, 0x3d, 0x39, 0xd8, 0xc9, 0x6a, 0xb9, 0xe8, 0x13, 0x01, 0x39,
  0x72, 0xfa, 0x2d, 0x39, 0x21, 0x14, 0xb9, 0x38, 0x21, 0xde, 0x03, 0xba,
  0xdd, 0x11, 0x59, 0x39, 0xd7, 0xd1, 0x91, 0x39, 0xba, 0xdc, 0xb1, 0xb8,
  0xe9, 0x32, 0xc3, 0x38, 0x13, 0xb7, 0x04, 0xba, 0x6b, 0x0d, 0x99, 0x39,
  0x9f, 0x94, 0xc2, 0xb8, 0x6e, 0x17, 0xdc, 0xb9, 0x33, 0x0a, 0xb8, 0xb9,
  0x41, 0x13, 0xad, 0x39, 0x1e, 0x76, 0x2f, 0x39, 0xab, 0xd9, 0x1b, 0x39,
  0xb0, 0x83, 0xb9, 0x39, 0x97, 0x1f, 0x60, 0xb9, 0x57, 0xbf, 0xc6, 0x38,
  0x58, 0xd6, 0xc6, 0xb9, 0x83, 0x86, 0x5f, 0x39, 0xa7, 0x91, 0x98, 0xb9,
  0x25, 0x43, 0xaf, 0xb9, 0xaf, 0x9a, 0x3c, 0xb9, 0x87, 0x56, 0x52, 0xb9,
  0xe6, 0x27, 0xb8, 0xb9, 0x09, 0x6e, 0x80, 0xb8, 0xf0, 0xcc, 0x73, 0xb9,
  0x14, 0x92, 0x53, 0x39, 0x9c, 0x05, 0xe5, 0x38, 0x19, 0x00, 0xbe, 0xb8,
  0x0a, 0x92, 0x19, 0x38, 0x8c, 0x41, 0xfe, 0xb9, 0x5e, 0x33, 0x2e, 0x38,
  0x7d, 0x29, 0xf7, 0xb9, 0x7d, 0x75, 0x2a, 0x38, 0xfe, 0x51, 0x26, 0x39,
  0x55, 0xf7, 0xda, 0xb9, 0xeb, 0x8f, 0xc5, 0xb8, 0x7e, 0x8b, 0x94, 0x39,
  0xba, 0x79, 0x70, 0x37, 0x85, 0x94, 0xa6, 0x39, 0xb8, 0xa3, 0xdf, 0xb8,
  0x51, 0x62, 0x3d, 0xb6, 0xed, 0x03, 0xdf, 0xb9, 0xce, 0xed, 0xc5, 0x39,
  0x00, 0xec, 0x21, 0xb9, 0xd4, 0x59, 0x25, 0x39, 0xaf, 0x17, 0x26, 0xb9,
  0x82, 0x42, 0x5b, 0xb8, 0x7e, 0x4a, 0xb6, 0x39, 0x81, 0xc2, 0x2f, 0xb7,
  0xc7, 0x61, 0x02, 0x39, 0xce, 0xd0, 0x46, 0x39, 0x02, 0x3d, 0xb4, 0x38,
  0x70, 0x49, 0x81, 0xb9, 0x79, 0xed, 0x82, 0xb9, 0x45, 0x97, 0xb4, 0x37,
  0x64, 0xd1, 0xe8, 0xb9, 0xc9, 0xc5, 0x14, 0xb9, 0x82, 0x19, 0x00, 0xba,
  0x45, 0xd1, 0xcc, 0xb9, 0xed, 0x8f, 0xf1, 0xb8, 0xc7, 0x01, 0x83, 0xb8,
  0x37, 0xab, 0xca, 0x38, 0x37, 0x9c, 0x92, 0xb9, 0x1f, 0xc2, 0xbf, 0xb9,
  0xf6, 0x8f, 0xb3, 0xb8, 0xc5, 0xda, 0xb6, 0xb9, 0x70, 0x4f, 0x1a, 0x37,
  0xea, 0xce, 0xdb, 0xb9, 0xba, 0xa0, 0x6f, 0x39, 0xac, 0x64, 0x87, 0x39,
  0x34, 0xa5, 0x59, 0x38, 0xca, 0xd0, 0xc3, 0xb9, 0x93, 0xed, 0x8a, 0x38,
  0xff, 0x81, 0x2c, 0xb9, 0xfe, 0x05, 0x62, 0x39, 0xcf, 0x65, 0x05, 0x39,
  0x9f, 0xe6, 0x55, 0xb9, 0x7f, 0x29, 0x03, 0xba, 0x42, 0x10, 0x8f, 0xb9,
  0xb2, 0xdd, 0x23, 0xb9, 0xfb, 0x6c, 0x71, 0xb9, 0xa1, 0xfd, 0x6e, 0xb9,
  0x89, 0x9d, 0x7a, 0xb8, 0xfa, 0x20, 0x3f, 0x39, 0x3d, 0x86, 0xb1, 0xb9,
  0x3c, 0x78, 0x05, 0x39, 0xcb, 0xfb, 0xdb, 0xb8, 0xe7, 0xcc, 0xa5, 0x38,
  0xb7, 0x01, 0xbe, 0x39, 0x3a, 0xb5, 0xe2, 0x39, 0x63, 0x3a, 0xee, 0x38,
  0xd0, 0xa2, 0xcc, 0xb9, 0xa9, 0x5d, 0xfb, 0xb9, 0x32, 0xb1, 0x26, 0x39,
  0x6c, 0x4d, 0xf1, 0xb9, 0x2d, 0xb1, 0x37, 0xb9, 0xa0, 0x43, 0xa7, 0x39,
  0x3e, 0x61, 0x87, 0xb7, 0x86, 0x5b, 0x4d, 0xb9, 0xb2, 0xe8, 0xd5, 0xb9,
  0x78, 0xc6, 0x22, 0xb8, 0x51, 0x09, 0xde, 0x39, 0x58, 0x12, 0x32, 0xb8,
  0x12, 0x0f, 0xa3, 0x39, 0x23, 0x6d, 0xcd, 0x39, 0xab, 0x23, 0xbf, 0x39,
  0x43, 0x07, 0x33, 0x39, 0x9e, 0x4b, 0x87, 0x37, 0x0d, 0x21, 0x20, 0xb8,
  0x1a, 0x65, 0xcb, 0x39, 0x21, 0x62, 0x4b, 0xb9, 0x02, 0x3c, 0x43, 0x39,
  0x29, 0xb2, 0x00, 0xba, 0xaf, 0xf6, 0x8b, 0x39, 0x36, 0xf3, 0xf7, 0xb9,
  0x14, 0x71, 0xf0, 0xb9, 0x29, 0x6d, 0x94, 0xb9, 0xd4, 0x9b, 0x8a, 0xb9,
  0x89, 0x7c, 0xd4, 0x39, 0x96, 0x43, 0xe7, 0xb9, 0x55, 0x72, 0x9d, 0x38,
  0xd8, 0xf6, 0xe6, 0xb8, 0x6d, 0x99, 0x95, 0x38, 0xbd, 0xd8, 0x12, 0xb9,
  0x0d, 0x6d, 0x10, 0x38, 0xc5, 0x06, 0x95, 0xb9, 0x9d, 0xf2, 0xd5, 0xb9,
  0x05, 0xb1, 0xa9, 0x39, 0x4f, 0x00, 0x29, 0xb8, 0xae, 0xb1, 0xd6, 0x39,
  0x67, 0xdb, 0x46, 0xb9, 0xf6, 0x79, 0xc6, 0xb9, 0xa1, 0x4d, 0x9b, 0xb9,
  0x0d, 0x13, 0xe9, 0x39, 0xff, 0xc8, 0x29, 0xb9, 0x60, 0x4a, 0xcd, 0x39,
  0x90, 0x74, 0x83, 0x36, 0x51, 0x10, 0xd8, 0xb9, 0x16, 0x37, 0xc4, 0xb9,
  0xbc, 0x30, 0x06, 0x39, 0x66, 0xd4, 0xab, 0x36, 0xa0, 0x43, 0x7e, 0xb9,
  0x9d, 0x69, 0x34, 0xb9, 0xf8, 0x8e, 0xdd, 0xb8, 0x28, 0x49, 0x63, 0x37,
  0x0c, 0xf1, 0xbe, 0xb9, 0x08, 0x57, 0x53, 0xb9, 0x77, 0xb8, 0x88, 0x39,
  0x78, 0xdc, 0xbf, 0xb7, 0x93, 0x13, 0xab, 0x39, 0xf2, 0x26, 0x76, 0xb9,
  0x65, 0xdc, 0xe6, 0x37, 0xcf, 0xd0, 0x1b, 0x38, 0x9f, 0x3c, 0x18, 0xb8,
  0x31, 0x12, 0xe7, 0xb9, 0x18, 0x93, 0x79, 0x38, 0x60, 0x8f, 0x8a, 0xb7,
  0xf7, 0xd7, 0x14, 0xb9, 0x12, 0xe9, 0x83, 0xb8, 0x7d, 0xf6, 0x83, 0xb9,
  0xa0, 0x4b, 0xe5, 0xb9, 0x11, 0xb5, 0x44, 0x39, 0x68, 0xd0, 0x02, 0xba,
  0xf6, 0xd2, 0xdc, 0xb7, 0xb2, 0x65, 0x7e, 0xb9, 0xb4, 0x47, 0x91, 0xb9,
  0x29, 0xaf, 0xe4, 0x39, 0x0f, 0x50, 0x2c, 0x39, 0x2e, 0x2f, 0x97, 0xb9,
  0x19, 0x2c, 0x01, 0xb9, 0xe9, 0xaf, 0x0c, 0xb8, 0x16, 0x64, 0x01, 0xba,
  0x44, 0x55, 0x03, 0xba, 0xec, 0x6f, 0x12, 0x39, 0xf6, 0xc7, 0x93, 0x39,
  0xbe, 0xab, 0x81, 0xb9, 0x73, 0x26, 0xc4, 0xb8, 0x4a, 0x97, 0x91, 0xb9,
  0xe7, 0xfe, 0x8e, 0x38, 0x8a, 0x9c, 0xdd, 0xb7, 0x84, 0x54, 0x48, 0x39,
  0x40, 0xf9, 0xad, 0xb9, 0xff, 0xe2, 0x53, 0xb9, 0x2c, 0x87, 0x24, 0x39,
  0x00, 0x90, 0xb6, 0xb9, 0x62, 0x11, 0x9c, 0x39, 0xd9, 0x4a, 0x9c, 0xb8,
  0xc9, 0xcf, 0x58, 0xb8, 0x56, 0xd4, 0xbb, 0xb9, 0x0a, 0x57, 0xd2, 0xb8,
  0x1d, 0x8d, 0xa2, 0xb9, 0x52, 0xad, 0xf1, 0x38, 0x5b, 0x63, 0x01, 0xb7,
  0x4b, 0x9d, 0x92, 0x39, 0xd2, 0x05, 0x6b, 0xb9, 0x74, 0x47, 0xab, 0xb9,
  0x95, 0xd3, 0x83, 0xb9, 0xb2, 0x8e, 0xea, 0x39, 0x73, 0xca, 0xea, 0xb9,
  0xfc, 0xc2, 0xfb, 0xb9, 0xb3, 0xcc, 0xb4, 0x39, 0x94, 0x19, 0xcb, 0xb9,
  0x0d, 0xa3, 0xb4, 0x39, 0xa6, 0x42, 0x86, 0xb9, 0x79, 0xaa, 0xd8, 0x39,
  0x06, 0x73, 0x39, 0x39, 0x33, 0xc2, 0xee, 0xb9, 0x09, 0xa2, 0x81, 0xb9,
  0xbe, 0x97, 0xb9, 0x39, 0x43, 0x73, 0xa1, 0x39, 0xff, 0x46, 0xd8, 0x39,
  0xb3, 0xa2, 0x3c, 0xb9, 0x81, 0x5f, 0x92, 0x38, 0x26, 0xd3, 0xa8, 0xb9,
  0x7a, 0x08, 0x31, 0xb9, 0x67, 0x7f, 0x15, 0xb8, 0x22, 0xb4, 0x8d, 0xb9,
  0x34, 0xcc, 0xb9, 0xb8, 0x25, 0xf7, 0xda, 0xb9, 0x7a, 0x77, 0x0a, 0xb9,
  0x18, 0xf1, 0x12, 0x39, 0x76, 0xff, 0x43, 0x39, 0xfc, 0x33, 0x20, 0x39,
  0x60, 0xc6, 0x73, 0xb9, 0xa1, 0x35, 0x07, 0x39, 0x93, 0xc5, 0x58, 0xb9,
  0x44, 0x34, 0x12, 0x39, 0xab, 0xb7, 0xb4, 0xb9, 0x7a, 0x4b, 0xa3, 0xb9,
  0xa0, 0xa3, 0x02, 0xb7, 0x73, 0xc1, 0xba, 0x39, 0x57, 0x1f, 0xb6, 0x39,
  0x22, 0xba, 0x11, 0xb9, 0x49, 0xe2, 0x9a, 0xb9, 0x3d, 0x94, 0x7a, 0xb9,
  0xae, 0xc9, 0xa5, 0xb8, 0x4a, 0x63, 0x8a, 0xb9, 0x00, 0x26, 0xc4, 0xb9,
  0xd5, 0x9f, 0xbd, 0x39, 0xba, 0x05, 0x5c, 0xb9, 0x0f, 0xde, 0x56, 0x39,
  0xb4, 0x9a, 0x36, 0xb8, 0x63, 0xbd, 0x70, 0x39, 0x6c, 0x25, 0x21, 0x38,
  0x59, 0x97, 0x82, 0x39, 0x7b, 0xfc, 0xde, 0x39, 0xdb, 0xa0, 0xa4, 0x39,
  0x5f, 0xa4, 0x35, 0x36, 0x20, 0x32, 0x23, 0xb8, 0x09, 0x09, 0x78, 0x39,
  0x78, 0x7a, 0x1c, 0xb9, 0xda, 0xa3, 0x88, 0xb9, 0xf3, 0x7d, 0x55, 0x39,
  0xc8, 0xa7, 0xe6, 0x39, 0x3e, 0x6e, 0x2f, 0x39, 0x91, 0x12, 0xe4, 0xb9,
  0xbb, 0xb2, 0xc6, 0x39, 0xdd, 0x64, 0xeb, 0x39, 0x4c, 0x2b, 0x6a, 0x39,
  0x70, 0x5f, 0xe4, 0x39, 0x9b, 0x3f, 0xa0, 0x39, 0x1c, 0x7f, 0x8b, 0xb8,
  0xfa, 0x65, 0xc7, 0xb9, 0x3a, 0xc9, 0x67, 0xb9, 0xfe, 0xb5, 0xbb, 0x38,
  0x35, 0x83, 0x14, 0xb8, 0x67, 0x40, 0x9e, 0xb9, 0xa9, 0x4c, 0xc8, 0x38,
  0xd6, 0xf4, 0x8c, 0xb9, 0xb5, 0x6d, 0x81, 0x38, 0x70, 0x17, 0xd7, 0xb8,
  0x01, 0xe2, 0x17, 0x38, 0x0c, 0x8f, 0x3d, 0xb8, 0x4d, 0xd6, 0x7e, 0xb8,
  0x35, 0xab, 0xe1, 0xb9, 0x3c, 0x7d, 0x20, 0x39, 0x46, 0xdf, 0xe3, 0xb9,
  0xd4, 0xc3, 0xcc, 0x39, 0x62, 0x22, 0x79, 0xb9, 0xcc, 0x0a, 0xdf, 0xb9,
  0xc2, 0xb7, 0x9f, 0xb9, 0xd6, 0xf6, 0xb1, 0xb9, 0xbe, 0x9e, 0x9e, 0xb9,
  0x53, 0x98, 0xa5, 0x38, 0x89, 0x95, 0x77, 0xb9, 0x65, 0xb0, 0x57, 0xb8,
  0x94, 0xf1, 0xd7, 0x39, 0x92, 0x65, 0x7c, 0xb9, 0xd8, 0xbf, 0x76, 0xb8,
  0xbd, 0xf1, 0x36, 0x39, 0xed, 0xc1, 0x57, 0x39, 0xc6, 0xa1, 0x8c, 0x37,
  0x5a, 0xf4, 0x91, 0x39, 0xdc, 0x95, 0x34, 0xb9, 0x86, 0xad, 0x9f, 0xb8,
  0xe0, 0xff, 0x28, 0x39, 0x9a, 0xf9, 0x98, 0xb9, 0x85, 0xb2, 0xf5, 0x38,
  0x64, 0x3a, 0xbb, 0x39, 0x74, 0xb7, 0x1b, 0x39, 0xee, 0xe4, 0xd2, 0xb9,
  0xd5, 0x27, 0xac, 0x39, 0xb2, 0xbf, 0xaa, 0xb9, 0x30, 0x56, 0xe0, 0xb9,
  0xed, 0x74, 0x30, 0x39, 0x2f, 0x34, 0x9d, 0x39, 0xfa, 0xae, 0x43, 0xb8,
  0x6c, 0x19, 0xe8, 0x39, 0x7e, 0x07, 0xf7, 0xb8, 0xbc, 0x67, 0xb6, 0x39,
  0x71, 0x93, 0xb2, 0xb9, 0x20, 0x8e, 0xa4, 0xb9, 0xfa, 0x6b, 0xb8, 0xb9,
  0x51, 0xd5, 0xf4, 0xb9, 0x4f, 0xae, 0xcf, 0xb9, 0xab, 0x62, 0x52, 0x39,
  0x85, 0x22, 0xf7, 0x37, 0x29, 0x36, 0xd5, 0xb9, 0xe0, 0x7a, 0x56, 0xb9,
  0x1b, 0xdd, 0xdb, 0xb8, 0xe8, 0x97, 0xe5, 0x39, 0xdb, 0xe3, 0x03, 0x39,
  0x0a, 0xa7, 0x25, 0x38, 0x00, 0x58, 0x22, 0x39, 0x9e, 0xdb, 0xab, 0xb9,
  0x95, 0x72, 0x1d, 0xb8, 0xb5, 0xb5, 0xca, 0xb7, 0xa6, 0x61, 0x3e, 0x39,
  0xc5, 0x08, 0x31, 0xb9, 0x89, 0x4d, 0xc7, 0xb9, 0xcf, 0xc2, 0x61, 0x39,
  0x83, 0x3e, 0xba, 0xb9, 0x80, 0xd8, 0xd7, 0x39, 0xd0, 0x6f, 0xcb, 0x36,
  0x07, 0xf5, 0xf2, 0x37, 0x88, 0xc3, 0x94, 0xb8, 0x9b, 0x06, 0xcf, 0x39,
  0x90, 0xc9, 0x64, 0x39, 0xdf, 0x85, 0x19, 0xb7, 0x2a, 0x73, 0xed, 0xb9,
  0x82, 0x7b, 0x22, 0x39, 0x2b, 0x90, 0x03, 0xba, 0xdb, 0x74, 0xdb, 0x38,
  0x15, 0xc3, 0xe2, 0xb9, 0x49, 0xb5, 0xbf, 0xb8, 0x4a, 0xb2, 0x9c, 0x39,
  0x99, 0x0b, 0x46, 0x39, 0x9d, 0xdf, 0x0c, 0x39, 0xb7, 0x32, 0xb5, 0xb9,
  0x1d, 0x1a, 0x23, 0xb9, 0xdc, 0x60, 0x75, 0x39, 0x10, 0x79, 0xd0, 0x39,
  0x54, 0xad, 0x18, 0x39, 0x18, 0x64, 0xc9, 0xb9, 0x02, 0xe9, 0xdd, 0x39,
  0x9a, 0x6f, 0xf3, 0xb9, 0x9c, 0x65, 0x9e, 0xb9, 0xf4, 0x0b, 0xcf, 0xb7,
  0x19, 0x46, 0x86, 0x39, 0xd3, 0xdb, 0xc2, 0xb8, 0x13, 0x22, 0xb9, 0x39,
  0x17, 0xe7, 0xd1, 0x39, 0xd3, 0x15, 0x01, 0x39, 0x16, 0x43, 0xa8, 0x38,
  0x5d, 0x8b, 0x94, 0x39, 0x6f, 0x8b, 0x92, 0xb8, 0xd8, 0x57, 0x9b, 0x38,
  0xe3, 0x37, 0xc5, 0x39, 0x7a, 0xeb, 0xa7, 0x39, 0xa2, 0xb7, 0x08, 0x39,
  0x8e, 0x8b, 0x4f, 0x39, 0x82, 0xac, 0xe9, 0x37, 0xdc, 0x38, 0x33, 0xb6,
  0x07, 0x63, 0x77, 0x39, 0xdf, 0x4e, 0x62, 0xb9, 0x47, 0x3e, 0xac, 0x39,
  0x56, 0x7d, 0x39, 0x39, 0x19, 0x06, 0x12, 0x39, 0x6e, 0x8f, 0xb2, 0xb9,
  0x9f, 0x93, 0x61, 0xb9, 0x7c, 0x4f, 0x6a, 0x39, 0xcb, 0xb8, 0x2c, 0x39,
  0x5d, 0x3f, 0xe4, 0x39, 0x03, 0x8a, 0xc4, 0xb9, 0x2d, 0xea, 0x50, 0x39,
  0xa5, 0xa9, 0x14, 0x38, 0x0b, 0x8d, 0xe6, 0xb9, 0x77, 0xfb, 0xaf, 0xb9,
  0x2c, 0xf4, 0x85, 0x39, 0xb5, 0x72, 0xe8, 0x38, 0x98, 0xa3, 0xaf, 0x39,
  0xa7, 0x73, 0x8b, 0x39, 0x0e, 0xea, 0xc4, 0x39, 0x0f, 0xc6, 0x17, 0xb9,
  0x68, 0x82, 0xdf, 0xb9, 0x06, 0x7c, 0x00, 0xb9, 0xe9, 0x3f, 0x98, 0xb8,
  0x81, 0x44, 0xa9, 0x39, 0x9b, 0x4a, 0xca, 0x39, 0x1b, 0x9a, 0x71, 0x38,
  0x82, 0xdd, 0x8e, 0x39, 0xe6, 0xec, 0xd4, 0x39, 0x4b, 0x0e, 0xe3, 0x39,
  0xb5, 0x7e, 0x9a, 0x39, 0x9c, 0x36, 0x93, 0x39, 0xbe, 0x70, 0xb4, 0x38,
  0x3d, 0x92, 0x6e, 0xb9, 0x1d, 0x8d, 0x03, 0xba, 0x9c, 0x05, 0x94, 0x37,
  0x38, 0x4b, 0x03, 0x39, 0x2a, 0x08, 0xcd, 0xb8, 0x7b, 0x50, 0x47, 0xb9,
  0x2e, 0x79, 0xbd, 0x39, 0x54, 0xa9, 0x9a, 0xb9, 0xce, 0x6f, 0xb0, 0xb9,
  0x5c, 0x79, 0xef, 0xb9, 0xdf, 0x32, 0x58, 0xb8, 0x31, 0x32, 0x30, 0xb9,
  0xfa, 0x69, 0x01, 0xb8, 0x62, 0xee, 0xe9, 0xb7, 0x60, 0x9f, 0xe0, 0xb9,
  0x90, 0xac, 0x23, 0xb9, 0x61, 0x4b, 0x61, 0x39, 0xed, 0xd6, 0x2c, 0xb9,
  0x29, 0x40, 0xb1, 0x37, 0xaa, 0xbb, 0x9b, 0xb8, 0x33, 0x33, 0xc3, 0xb9,
  0x65, 0xe7, 0xad, 0xb9, 0x91, 0x03, 0xe5, 0x39, 0xbc, 0x9b, 0x55, 0x38,
  0x03, 0xeb, 0xca, 0xb9, 0x16, 0xaf, 0x66, 0xb9, 0x10, 0xa7, 0xad, 0x39,
  0x84, 0xaf, 0xa3, 0x39, 0x51, 0xf6, 0x78, 0x38, 0x69, 0xd7, 0xd5, 0x39,
  0xcb, 0x75, 0x48, 0x39, 0x27, 0xfe, 0x2d, 0xb9, 0x99, 0xdd, 0xfe, 0xb6,
  0xe2, 0x31, 0xa4, 0xb3, 0xf1, 0x7f, 0xa9, 0x39, 0x00, 0x26, 0xe6, 0x39,
  0xd4, 0x94, 0xb5, 0x39, 0x39, 0xc9, 0xbd, 0x39, 0x30, 0xf6, 0xc3, 0x39,
  0x25, 0x08, 0xab, 0xb8, 0x05, 0xdf, 0xf5, 0xb9, 0xfe, 0x5e, 0x8c, 0xb8,
  0xa5, 0xf9, 0x0a, 0xb9, 0x42, 0xd9, 0xa9, 0xb9, 0x46, 0xf9, 0x4c, 0xb8,
  0x7c, 0x0a, 0xd5, 0xb9, 0xcf, 0x51, 0x93, 0x39, 0xac, 0x9d, 0xc7, 0xb9,
  0x55, 0xe0, 0x77, 0x39, 0xb1, 0xc2, 0x4d, 0x39, 0xaf, 0x33, 0xe7, 0xb9,
  0x01, 0xec, 0xe6, 0x38, 0x39, 0xab, 0x4c, 0xb9, 0xe8, 0xe0, 0xc9, 0xb9,
  0x82, 0x7b, 0xbd, 0x39, 0x55, 0x32, 0xaf, 0xb9, 0xd2, 0x08, 0xe1, 0xb9,
  0x2e, 0x20, 0x2f, 0xb9, 0xa2, 0x92, 0x69, 0x39, 0x03, 0x18, 0xaf, 0x39,
  0xda, 0x78, 0x41, 0x38, 0x80, 0xc3, 0x27, 0xb9, 0x52, 0xa0, 0x87, 0x39,
  0x23, 0x7d, 0xb6, 0x39, 0x76, 0x50, 0xa4, 0x38, 0x49, 0x46, 0x0c, 0x37,
  0xec, 0x9e, 0x8f, 0x39, 0xd2, 0x45, 0xe7, 0x38, 0x8d, 0xcc, 0x11, 0xb7,
  0x58, 0x81, 0xe3, 0xb7, 0x31, 0x68, 0x9c, 0x39, 0x32, 0x16, 0x81, 0xb8,
  0x35, 0x9a, 0xbc, 0xb9, 0xef, 0xd1, 0xf5, 0xb9, 0xe5, 0x5e, 0xde, 0x36,
  0x61, 0x8f, 0xbf, 0xb9, 0xba, 0x98, 0x2c, 0x39, 0x41, 0x5f, 0x87, 0xb9,
  0xc8, 0x4b, 0x1b, 0x38, 0x92, 0x9f, 0xcd, 0xb8, 0xff, 0x5f, 0x2f, 0x39,
  0xf5, 0xcb, 0xc6, 0xb9, 0xc3, 0xd7, 0x2c, 0xb9, 0x8e, 0xfd, 0xb2, 0x39,
  0x17, 0x5a, 0xb6, 0xb9, 0x89, 0x10, 0x54, 0x38, 0x2f, 0x03, 0x30, 0x39,
  0xe3, 0xec, 0xfa, 0xb9, 0xe3, 0xe3, 0x92, 0x38, 0x2d, 0x14, 0xd4, 0x37,
  0x2d, 0x56, 0xe1, 0xb8, 0xd9, 0x51, 0x81, 0x39, 0x65, 0x84, 0x3c, 0xb9,
  0x54, 0x4d, 0xf7, 0xb8, 0xaa, 0xeb, 0xd1, 0x39, 0x24, 0x38, 0xb9, 0xb9,
  0x77, 0xa4, 0x00, 0x39, 0x1d, 0x82, 0x65, 0x36, 0xf0, 0xc4, 0x77, 0x39,
  0x8c, 0x01, 0x89, 0x38, 0x6e, 0xc8, 0x97, 0x39, 0x00, 0x44, 0xc3, 0x39,
  0xb6, 0x2a, 0x8b, 0x39, 0x89, 0x33, 0xda, 0xb9, 0xa9, 0x99, 0x46, 0xb9,
  0x59, 0x50, 0x6c, 0xb9, 0x39, 0xd5, 0x3f, 0xb8, 0xba, 0xf2, 0x74, 0xb9,
  0xbe, 0xea, 0x46, 0x37, 0x57, 0x60, 0x72, 0xb9, 0x99, 0x4a, 0x84, 0xb9,
  0x0a, 0xc1, 0xab, 0x38, 0x09, 0x3e, 0xb3, 0xb9, 0x07, 0x99, 0xe7, 0xb9,
  0xa7, 0x0a, 0xa0, 0x39, 0x95, 0x4a, 0x5d, 0x39, 0x0c, 0xee, 0xd1, 0xb8,
  0x9d, 0x72, 0x99, 0xb9, 0x77, 0xb3, 0xc6, 0xb8, 0xf1, 0x29, 0xe5, 0x39,
  0xd9, 0xa6, 0xce, 0x39, 0xd1, 0x76, 0x4c, 0x39, 0x83, 0xc5, 0x5f, 0x39,
  0xce, 0x5c, 0x0d, 0xb8, 0x9f, 0x41, 0xb4, 0x39, 0x53, 0x06, 0x0b, 0x39,
  0xee, 0x81, 0xb3, 0xb8, 0xc7, 0xf6, 0x05, 0x38, 0x2e, 0xe7, 0x00, 0x37,
  0xe7, 0x26, 0xa1, 0xb9, 0x80, 0xa9, 0xed, 0xb8, 0x6d, 0x7e, 0xd2, 0x39,
  0x54, 0x08, 0xc5, 0xb8, 0x68, 0x84, 0x56, 0x39, 0xdd, 0x41, 0x3e, 0xb9,
  0xa7, 0x88, 0xe7, 0xb9, 0x80, 0xa0, 0x92, 0xb9, 0xba, 0xea, 0x2c, 0x38,
  0x5a, 0xf2, 0xcb, 0xb9, 0x9a, 0xfc, 0x7f, 0x39, 0x78, 0x22, 0x5c, 0xb9,
  0x28, 0x1c, 0xf4, 0x38, 0x5b, 0x34, 0x87, 0xb9, 0xb2, 0x71, 0xb4, 0x37,
  0xaf, 0x50, 0xbd, 0xb9, 0xe1, 0x72, 0xea, 0x39, 0xd5, 0x46, 0xde, 0x38,
  0xf0, 0xfe, 0x0d, 0x39, 0x42, 0x0f, 0x22, 0xb9, 0x6c, 0xbd, 0x6f, 0xb9,
  0x2e, 0x82, 0x98, 0xb9, 0x93, 0x2b, 0xad, 0x39, 0xfe, 0xd3, 0xb5, 0x39,
  0x2d, 0x4e, 0x30, 0x39, 0xae, 0xf8, 0xda, 0x38, 0x13, 0x63, 0x82, 0xb9,
  0x08, 0x20, 0x62, 0x39, 0x88, 0x50, 0xfd, 0xb7, 0x0a, 0xb1, 0x97, 0x39,
  0xae, 0x27, 0x5b, 0xb8, 0xb4, 0x71, 0xf0, 0xb9, 0x63, 0xf1, 0xd2, 0xb9,
  0x03, 0x3c, 0xa1, 0xb9, 0xeb, 0x93, 0x10, 0x39, 0x43, 0x5f, 0x3f, 0xb8,
  0x67, 0x79, 0x0b, 0x38, 0x24, 0xfb, 0x2d, 0x39, 0x98, 0x6c, 0xbd, 0x39,
  0xbb, 0xe6, 0xc8, 0xb9, 0x9b, 0xb2, 0x54, 0x39, 0x39, 0x27, 0x9e, 0xb8,
  0x44, 0xb9, 0x9a, 0x39, 0x1e, 0xc5, 0xa3, 0x39, 0x0f, 0xdc, 0x0a, 0x37,
  0x5e, 0x68, 0xd2, 0xb9, 0xc7, 0xb5, 0x65, 0xb9, 0xda, 0x0a, 0x8e, 0x39,
  0xfc, 0x99, 0x7d, 0xb8, 0xa7, 0xa0, 0x86, 0x39, 0x4a, 0x5e, 0x80, 0xb9,
  0x52, 0x76, 0xd2, 0x38, 0x25, 0x5e, 0x2c, 0xb9, 0x14, 0x46, 0x9c, 0xb8,
  0x4b, 0x5b, 0xd4, 0xb8, 0xd5, 0x55, 0xa9, 0xb9, 0x74, 0xf2, 0x82, 0xb8,
  0x9b, 0xd6, 0x82, 0x39, 0x15, 0x1b, 0xa2, 0x39, 0x3d, 0x07, 0x67, 0xb9,
  0x4c, 0xd9, 0x43, 0x39, 0x11, 0xf0, 0x8a, 0xb8, 0x67, 0x54, 0x4e, 0xb9,
  0x3c, 0xeb, 0x90, 0xb7, 0xde, 0x0e, 0xe7, 0x39, 0x1c, 0x84, 0xdf, 0xb9,
  0x3b, 0xd2, 0x6d, 0xb8, 0x17, 0x07, 0xa8, 0x39, 0x62, 0xf2, 0x95, 0x39,
  0x2a, 0x20, 0xe9, 0xb9, 0x97, 0xc9, 0x88, 0xb9, 0x9c, 0x1f, 0xc2, 0xb9,
  0x4e, 0xc4, 0xa2, 0xb8, 0x37, 0x65, 0xaf, 0x39, 0x76, 0x9d, 0x27, 0xb9,
  0x9c, 0x89, 0xdb, 0xb9, 0x7a, 0x0a, 0xed, 0x38, 0x38, 0xdb, 0x04, 0x37,
  0x58, 0x92, 0x1b, 0x39, 0x94, 0x71, 0xf2, 0xb9, 0xf4, 0xb6, 0x8a, 0xb9,
  0xa0, 0xfd, 0x81, 0x39, 0xd9, 0x66, 0x57, 0xb8, 0x68, 0x08, 0x28, 0x39,
  0xba, 0x92, 0x16, 0x37, 0xf1, 0x2d, 0xdc, 0x39, 0x02, 0x9e, 0x92, 0x39,
  0x20, 0x17, 0x6b, 0xb9, 0xda, 0x4b, 0xc7, 0xb8, 0x0c, 0x51, 0x09, 0x39,
  0x96, 0x83, 0x18, 0x39, 0x45, 0x4a, 0x73, 0xb5, 0xb8, 0xb2, 0x81, 0xb9,
  0x47, 0x20, 0xc8, 0xb8, 0x16, 0xc0, 0x22, 0xb8, 0x06, 0xd4, 0xc2, 0xb9,
  0xac, 0x39, 0xf1, 0xb8, 0xa5, 0x64, 0xb1, 0xb9, 0x1e, 0x80, 0x9b, 0xb9,
  0xf1, 0x25, 0xe0, 0x39, 0x09, 0x7e, 0xc5, 0x39, 0x80, 0xd3, 0x40, 0xb8,
  0x02, 0xc9, 0xc5, 0xb9, 0x1f, 0xb8, 0x6c, 0x36, 0xd5, 0x8b, 0xdf, 0x39,
  0xe1, 0xc4, 0x57, 0xb9, 0x18, 0x99, 0xe4, 0x39, 0x2a, 0xce, 0xec, 0x38,
  0x31, 0x18, 0x3f, 0x39, 0x54, 0x05, 0xfa, 0xb8, 0xfe, 0x57, 0xf0, 0x38,
  0xf0, 0xa1, 0xdd, 0xb7, 0x4b, 0x37, 0x81, 0x37, 0xc6, 0x6a, 0xae, 0xb9,
  0xa7, 0x2d, 0xd1, 0x39, 0xc9, 0x45, 0xa4, 0x39, 0xb5, 0xc9, 0x57, 0xb8,
  0x0c, 0xde, 0xc0, 0x39, 0x99, 0x62, 0x87, 0x38, 0x36, 0x62, 0x29, 0xb8,
  0x5a, 0xa1, 0x4a, 0xb7, 0x53, 0xb1, 0xc1, 0x39, 0xaa, 0x18, 0x2b, 0x39,
  0xdc, 0xf0, 0x5e, 0x39, 0x8c, 0x51, 0x63, 0xb9, 0x95, 0x72, 0x1f, 0xb8,
  0x37, 0x9c, 0x71, 0x39, 0xa3, 0x9a, 0x76, 0xb9, 0x7c, 0x89, 0x19, 0x39,
  0xda, 0x88, 0xb1, 0xb9, 0x19, 0xc6, 0xc3, 0x39, 0x32, 0x5b, 0xc5, 0x38,
  0x4a, 0xde, 0x4e, 0xb6, 0xc3, 0xa3, 0x6b, 0x39, 0x6b, 0x9b, 0x84, 0x38,
  0xc7, 0x72, 0x8f, 0xb9, 0x55, 0xd5, 0xbc, 0x39, 0x70, 0xc0, 0x26, 0xb8,
  0x29, 0x4b, 0xa5, 0x39, 0x13, 0xe5, 0xc4, 0x36, 0x79, 0x88, 0xa8, 0xb8,
  0x7f, 0x28, 0x62, 0xb9, 0x00, 0x33, 0x26, 0x39, 0x6f, 0x1b, 0xda, 0x38,
  0x28, 0xbf, 0x8f, 0x39, 0x3b, 0x64, 0xc4, 0x37, 0x33, 0x94, 0x95, 0xb9,
  0x17, 0xae, 0xcc, 0x39, 0x46, 0xd3, 0xab, 0x39, 0x5b, 0xec, 0x01, 0xba,
  0xe2, 0xbb, 0x7e, 0xb9, 0x5d, 0x9b, 0xb4, 0x38, 0x36, 0x46, 0xbb, 0x39,
  0xe2, 0xdb, 0x6e, 0xb9, 0x69, 0x8c, 0xa6, 0x39, 0x01, 0xbd, 0xc2, 0xb9,
  0xc5, 0x48, 0xdd, 0xb9, 0x95, 0x3a, 0xae, 0xb9, 0x37, 0x06, 0x16, 0xb8,
  0x2e, 0xe2, 0x47, 0xb9, 0x47, 0xbe, 0xb7, 0xb8, 0xee, 0x97, 0x73, 0xb8,
  0x58, 0x77, 0x8d, 0xb9, 0x39, 0x32, 0x88, 0xb9, 0xa3, 0xd4, 0xb8, 0xb9,
  0x23, 0x95, 0xac, 0x39, 0x93, 0xb1, 0x43, 0x39, 0x05, 0xbf, 0xaf, 0xb9,
  0x11, 0x7f, 0x8c, 0xb9, 0x36, 0x99, 0xcc, 0xb7, 0x62, 0x0b, 0x8a, 0xb9,
  0x7d, 0x96, 0xe3, 0x39, 0x6b, 0x2b, 0xa8, 0xb9, 0xe4, 0xfe, 0x96, 0xb9,
  0x8d, 0xaf, 0xca, 0xb9, 0x07, 0xb3, 0xc2, 0x39, 0x66, 0x4c, 0xec, 0xb9,
  0x39, 0x2b, 0xb0, 0xb9, 0xd3, 0x73, 0x39, 0x39, 0xcd, 0xc0, 0xb7, 0x39,
  0x4e, 0x16, 0x14, 0x39, 0xaa, 0x85, 0x73, 0x39, 0x39, 0xb5, 0x89, 0x39,
  0xef, 0xc8, 0xc2, 0x37, 0x11, 0xa2, 0x98, 0x39, 0x2a, 0x9b, 0xcb, 0xb9,
  0xd9, 0x42, 0x79, 0x39, 0xd3, 0xd0, 0x31, 0xb9, 0xf5, 0x09, 0x69, 0xb9,
  0xad, 0x93, 0x76, 0xb9, 0x5c, 0xf2, 0x3d, 0xb9, 0x86, 0xa8, 0x69, 0xb9,
  0x3a, 0x73, 0xc0, 0xb9, 0x46, 0x35, 0x3d, 0xb9, 0x0d, 0xef, 0xf0, 0x39,
  0xcb, 0x6d, 0x52, 0x39, 0x54, 0x6d, 0xc6, 0xb9, 0x43, 0x96, 0x3c, 0x39,
  0xd8, 0x19, 0xaf, 0x39, 0xf2, 0xfe, 0x77, 0xb8, 0x67, 0xd2, 0xde, 0xb9,
  0x28, 0xcc, 0x90, 0xb9, 0x8e, 0x55, 0xa6, 0xb9, 0x3d, 0x92, 0x80, 0x39,
  0x8f, 0xeb, 0x6c, 0xb8, 0xe5, 0x9e, 0x43, 0xb9, 0x62, 0xed, 0xb1, 0x39,
  0x0f, 0x76, 0x81, 0x39, 0x8e, 0xab, 0x0c, 0x39, 0x13, 0xba, 0x92, 0xb9,
  0x68, 0x69, 0xa6, 0xb9, 0x68, 0xe8, 0xde, 0xb9, 0x9b, 0x93, 0x87, 0x39,
  0xbe, 0xf9, 0xef, 0xb9, 0xdb, 0x3e, 0x84, 0xb8, 0x5e, 0xe5, 0xdc, 0xb9,
  0xe0, 0x11, 0x00, 0xba, 0x2b, 0xb3, 0x7f, 0x39, 0x17, 0x08, 0xf7, 0xb9,
  0x31, 0xd6, 0xaa, 0x39, 0xb3, 0x3f, 0x92, 0x39, 0xdc, 0x52, 0xb9, 0xb9,
  0x1f, 0xd9, 0xf3, 0xb9, 0x05, 0x9f, 0xae, 0x38, 0xc6, 0x37, 0xca, 0xb9,
  0xc6, 0xc7, 0xb1, 0xb9, 0x63, 0x4b, 0xc7, 0xb9, 0x4a, 0x4c, 0xc8, 0xb9,
  0x84, 0xac, 0xe2, 0xb9, 0x79, 0xa6, 0x92, 0x39, 0x28, 0xe4, 0x39, 0x38,
  0x5f, 0x5b, 0xc6, 0xb9, 0xb9, 0xe4, 0xc6, 0xb9, 0x16, 0xde, 0x98, 0x39,
  0xd5, 0x87, 0x3d, 0x38, 0x4b, 0xa3, 0xec, 0x38, 0x43, 0x5e, 0x30, 0xb8,
  0xba, 0xd4, 0xbc, 0xb8, 0xa3, 0x63, 0xdd, 0xb9, 0xf4, 0x22, 0x90, 0x39,
  0xd0, 0xd4, 0xc4, 0xb9, 0x36, 0x6b, 0xec, 0x39, 0x28, 0x22, 0xf1, 0x36,
  0x60, 0x66, 0x45, 0x39, 0x05, 0x5e, 0xbe, 0xb9, 0x62, 0xc9, 0xe0, 0x39,
  0xb7, 0x1e, 0xe3, 0x39, 0x43, 0xc8, 0x4b, 0x39, 0x2f, 0x9d, 0xa9, 0x39,
  0xf2, 0x97, 0xc0, 0x39, 0x0d, 0x80, 0xe6, 0xb9, 0xfe, 0x4d, 0x94, 0xb9,
  0xf8, 0x77, 0xcd, 0xb9, 0x3c, 0x9f, 0x1c, 0xb9, 0x0b, 0x04, 0x5e, 0xb9,
  0xff, 0xa1, 0x39, 0x39, 0xc9, 0xdb, 0x56, 0x39, 0xd4, 0x01, 0x94, 0xb9,
  0x58, 0xa4, 0x30, 0x39, 0xce, 0x51, 0x9f, 0xb7, 0x12, 0xc4, 0x10, 0x39,
  0x89, 0x77, 0x99, 0xb9, 0xd3, 0x55, 0x6d, 0x38, 0xbb, 0x0a, 0xec, 0xb9,
  0x4c, 0xc0, 0xce, 0x39, 0xaf, 0x4a, 0x9e, 0x39, 0xb3, 0x43, 0x9d, 0xb9,
  0xab, 0xa9, 0x52, 0x39, 0x38, 0x97, 0xb6, 0x39, 0x66, 0xaf, 0x6d, 0x38,
  0xed, 0xb0, 0x54, 0xb9, 0x10, 0x2c, 0xc0, 0x39, 0xf3, 0x26, 0xa1, 0xb9,
  0x56, 0x1d, 0xff, 0x38, 0x4b, 0x17, 0xd0, 0x39, 0xd4, 0x57, 0x3f, 0xb9,
  0xde, 0x93, 0x50, 0xb9, 0xa0, 0xd0, 0x6b, 0xb6, 0x32, 0x1e, 0xb8, 0x38,
  0xbf, 0x40, 0x9c, 0xb9, 0x4c, 0x64, 0xc0, 0xb8, 0x1c, 0xad, 0x83, 0x38,
  0xdb, 0x0c, 0xe9, 0xb7, 0xdc, 0x99, 0xa6, 0xb7, 0x66, 0xe7, 0xd3, 0xb9,
  0x98, 0x96, 0xd0, 0x38, 0x07, 0x6a, 0xd6, 0xb9, 0x71, 0xf5, 0x9c, 0x38,
  0xb2, 0xa6, 0x09, 0x39, 0x65, 0xe0, 0xa4, 0x39, 0xbc, 0x37, 0xfd, 0x38,
  0xde, 0x4c, 0x70, 0xb9, 0x95, 0xca, 0xc9, 0x39, 0xe3, 0x1f, 0x6e, 0x39,
  0xfe, 0xad, 0x00, 0xb9, 0x66, 0xd3, 0x8a, 0x39, 0xac, 0x8d, 0xde, 0xb9,
  0x0c, 0xef, 0xc9, 0x39, 0x0c, 0x87, 0x71, 0xb9, 0x94, 0x47, 0xc4, 0x39,
  0x71, 0x8b, 0xbb, 0xb8, 0x69, 0xe1, 0xab, 0xb9, 0xee, 0x6d, 0x3b, 0xb9,
  0xcc, 0xbb, 0x66, 0x37, 0xcb, 0xcb, 0xdb, 0xb9, 0x09, 0xd2, 0x84, 0x39,
  0x32, 0xd4, 0x22, 0x39, 0xe9, 0xae, 0x89, 0xb9, 0xc3, 0x49, 0xea, 0xb6,
  0xdd, 0x4d, 0xd9, 0xb9, 0x87, 0x2b, 0xf3, 0x36, 0xb1, 0xec, 0x0d, 0x39,
  0x92, 0x70, 0xf1, 0x38, 0xe6, 0x85, 0xd0, 0xb9, 0x96, 0xae, 0x89, 0xb9,
  0xb0, 0x4c, 0xb1, 0x38, 0x3a, 0x73, 0x0e, 0xb9, 0xc4, 0x0e, 0xcf, 0x38,
  0xdd, 0xdc, 0x2d, 0xb8, 0xec, 0x13, 0x21, 0x39, 0x01, 0xef, 0xc7, 0x39,
  0xbe, 0xc4, 0x97, 0xb9, 0x97, 0xf0, 0xda, 0xb9, 0x54, 0x2e, 0xda, 0x38,
  0x26, 0xda, 0x82, 0x39, 0xec, 0x72, 0x7d, 0xb9, 0x29, 0x5c, 0x65, 0x39,
  0xf1, 0xa9, 0xb0, 0x39, 0x9d, 0x4a, 0xdb, 0xb9, 0xdb, 0xb4, 0xd5, 0xb9,
  0xb5, 0xea, 0xb4, 0xb9, 0x02, 0xd5, 0x0e, 0xb8, 0xed, 0x87, 0xb1, 0x39,
  0xb7, 0xc2, 0x81, 0xb7, 0x0e, 0x47, 0xd9, 0xb9, 0x15, 0x4e, 0xa9, 0x39,
  0xe1, 0xc7, 0xc0, 0x39, 0x2b, 0x1e, 0xd8, 0xb9, 0x7c, 0x23, 0x81, 0x39,
  0x2c, 0x3a, 0xcc, 0x38, 0x86, 0x65, 0x97, 0x38, 0x1a, 0xbb, 0xd6, 0xb9,
  0xf6, 0x4a, 0xe0, 0x39, 0x4b, 0xdd, 0xde, 0x39, 0x37, 0xd1, 0xee, 0x39,
  0xf4, 0x9c, 0xe8, 0xb8, 0x1b, 0xe0, 0xa9, 0xb9, 0x1f, 0x96, 0x9f, 0x39,
  0x13, 0x70, 0x20, 0x39, 0xb6, 0x84, 0x7d, 0x39, 0xd3, 0xe6, 0xbb, 0xb9,
  0xd7, 0xf7, 0x0f, 0xb9, 0xee, 0xf6, 0xca, 0xb9, 0x4e, 0x65, 0xec, 0xb9,
  0x81, 0xe5, 0x9d, 0xb9, 0x16, 0xd2, 0xe9, 0x39, 0x26, 0x17, 0xde, 0xb5,
  0x09, 0x40, 0x0d, 0xb9, 0x02, 0x6c, 0xc6, 0xb8, 0xd7, 0xd2, 0x88, 0x39,
  0x34, 0x81, 0xf0, 0x39, 0x3f, 0xb9, 0xca, 0x39, 0x74, 0x16, 0xa6, 0xb9,
  0xf1, 0x26, 0x49, 0xb9, 0x10, 0x2d, 0xb4, 0xb9, 0x22, 0x94, 0x69, 0x39,
  0x41, 0xb9, 0xd6, 0xb8, 0x8a, 0xb2, 0x32, 0xb9, 0xd1, 0x11, 0x00, 0x39,
  0x9f, 0x32, 0xcf, 0x39, 0x79, 0x76, 0xd4, 0xb8, 0xec, 0x66, 0x4e, 0xb8,
  0xc9, 0x67, 0xde, 0xb9, 0x15, 0xc1, 0x40, 0x39, 0xa7, 0x19, 0x8d, 0xb9,
  0xe9, 0x1d, 0x4c, 0x39, 0x91, 0xe3, 0x8d, 0xb8, 0xaf, 0xcc, 0xef, 0xb9,
  0x57, 0xcb, 0x82, 0x39, 0x73, 0x54, 0xa7, 0x39, 0x47, 0x7d, 0xdf, 0x39,
  0x00, 0x80, 0x34, 0xb9, 0x28, 0x22, 0x1d, 0xb9, 0x5c, 0x37, 0xea, 0xb9,
  0x8a, 0x51, 0xef, 0x38, 0xc5, 0x27, 0x61, 0x39, 0x06, 0x60, 0xa0, 0xb9,
  0x21, 0xa8, 0xe2, 0x39, 0x5c, 0xbb, 0xcb, 0x38, 0x64, 0x13, 0x1c, 0x39,
  0x6e, 0xdf, 0xcc, 0x39, 0xc2, 0x22, 0x65, 0xb9, 0x15, 0x24, 0x4c, 0x39,
  0x88, 0x2b, 0x4d, 0xb9, 0xaa, 0x43, 0x37, 0xb9, 0xef, 0xbb, 0x93, 0xb9,
  0x14, 0x51, 0xe3, 0xb9, 0xbb, 0xf6, 0x1f, 0xb9, 0xbf, 0x6d, 0xf2, 0xb9,
  0x80, 0xbb, 0x3c, 0x39, 0xdd, 0xbc, 0x0c, 0x38, 0xfc, 0x08, 0x97, 0xb9,
  0x90, 0x03, 0x64, 0x39, 0x8a, 0xe9, 0xcd, 0x38, 0xf4, 0xf2, 0xdc, 0xb7,
  0x31, 0xb8, 0x8e, 0x39, 0x33, 0x32, 0xba, 0x39, 0x13, 0xee, 0x47, 0x39,
  0x71, 0x3c, 0x34, 0x39, 0x5d, 0x96, 0xcc, 0x39, 0x4f, 0x76, 0xf2, 0xb8,
  0x07, 0x96, 0xf6, 0xb9, 0x69, 0x58, 0x56, 0x38, 0x30, 0x47, 0x78, 0xb8,
  0xec, 0xe2, 0xa1, 0xb9, 0xc1, 0xdf, 0xf5, 0x38, 0xa7, 0x55, 0xee, 0xb7,
  0xfa, 0x9b, 0xd5, 0xb9, 0x1c, 0x2a, 0xcf, 0xb9, 0xac, 0x19, 0xc0, 0xb9,
  0x8d, 0x80, 0xad, 0xb9, 0xc6, 0xbf, 0x23, 0xb9, 0xa3, 0xe0, 0x96, 0xb9,
  0x12, 0x1e, 0x98, 0xb9, 0x16, 0x41, 0x71, 0xb9, 0x0f, 0xae, 0x8e, 0xb8,
  0xee, 0x38, 0x95, 0xb9, 0x58, 0xd1, 0xa5, 0x39, 0x60, 0x2d, 0xf1, 0xb9,
  0x30, 0x27, 0x27, 0xb9, 0x43, 0x00, 0xb1, 0xb9, 0xef, 0x8a, 0x76, 0xb9,
  0xe7, 0x45, 0xc8, 0x38, 0x78, 0xaf, 0x84, 0xb9, 0x2e, 0xd5, 0x54, 0xb9,
  0xc7, 0xcc, 0x96, 0xb9, 0x0c, 0xca, 0xc5, 0xb9, 0x7e, 0xa9, 0x1d, 0xb9,
  0xf3, 0x6d, 0x69, 0xb9, 0xbe, 0x5d, 0x0e, 0x39, 0x16, 0xd5, 0xa9, 0x39,
  0x53, 0x32, 0x8f, 0xb8, 0x88, 0x87, 0x48, 0x38, 0xc8, 0xba, 0xdc, 0x39,
  0xe0, 0xeb, 0x1d, 0x39, 0xc5, 0xf4, 0x12, 0x39, 0x75, 0x68, 0xb8, 0xb9,
  0x5b, 0xbf, 0x73, 0xb9, 0x09, 0xc0, 0x01, 0x39, 0xb0, 0x7e, 0xf5, 0xb9,
  0x80, 0x47, 0xd9, 0x39, 0xea, 0x6e, 0x31, 0xb9, 0xe0, 0xd7, 0x87, 0x38,
  0xd7, 0xe5, 0xd7, 0x38, 0x7f, 0x9e, 0xd1, 0x37, 0x87, 0xe1, 0xb2, 0xb9,
  0x05, 0xc4, 0x6b, 0x37, 0x62, 0xf9, 0x96, 0x39, 0x54, 0x11, 0xa5, 0x39,
  0x46, 0xc1, 0xb1, 0x39, 0xad, 0xcc, 0x14, 0x38, 0x8f, 0x78, 0xbb, 0x39,
  0x01, 0xc4, 0x95, 0xb9, 0x7b, 0x78, 0xcc, 0x39, 0xa4, 0x03, 0xb6, 0xb8,
  0x34, 0x2f, 0xab, 0xb9, 0xbd, 0x96, 0xd6, 0xb9, 0xe9, 0x99, 0xdc, 0xb9,
  0x54, 0x47, 0xdd, 0xb9, 0x82, 0x91, 0xe1, 0xb8, 0xbd, 0x64, 0x95, 0x39,
  0x36, 0x81, 0x27, 0xb9, 0x15, 0x82, 0x56, 0xb9, 0xa7, 0x01, 0x5e, 0x39,
  0xba, 0xe8, 0x53, 0xb8, 0x86, 0xb1, 0x3c, 0x39, 0xfb, 0xd9, 0x65, 0xb8,
  0x51, 0xe2, 0xb3, 0xb9, 0xb5, 0x9e, 0xc7, 0x39, 0xbf, 0xc9, 0x5b, 0x39,
  0x29, 0x28, 0x87, 0x37, 0x87, 0x76, 0x21, 0xb9, 0x06, 0x3d, 0x33, 0x39,
  0xb1, 0xff, 0xf1, 0x39, 0x68, 0xd5, 0xef, 0x39, 0x7e, 0x6a, 0xd3, 0xb9,
  0x76, 0x7d, 0x1a, 0x39, 0xb9, 0xd1, 0x77, 0xb9, 0x47, 0x04, 0xc8, 0x39,
  0xf7, 0x15, 0xff, 0x37, 0x67, 0x5a, 0x56, 0x39, 0x57, 0xb8, 0xdd, 0x39,
  0x23, 0xc2, 0xce, 0x37, 0xc5, 0xa4, 0x1f, 0xb8, 0xf6, 0xc1, 0x06, 0xb9,
  0x51, 0x18, 0x15, 0xb9, 0x02, 0x91, 0xe6, 0xb9, 0x02, 0x01, 0xce, 0xb5,
  0x18, 0x97, 0xf6, 0x38, 0xb3, 0xc1, 0xa1, 0xb9, 0x02, 0x25, 0x66, 0xb9,
  0xaf, 0x79, 0xf8, 0xb9, 0x46, 0x55, 0x49, 0x39, 0xd0, 0x27, 0x0b, 0xb8,
  0x7e, 0x4a, 0xb5, 0xb9, 0xa3, 0xc2, 0x38, 0x38, 0xc1, 0xab, 0xf9, 0xb8,
  0xfe, 0xec, 0x54, 0x39, 0x74, 0xcf, 0x1b, 0x39, 0x81, 0x80, 0xa3, 0x35,
  0xd4, 0x43, 0x23, 0x38, 0x0f, 0xfa, 0x0d, 0x39, 0xaa, 0x3c, 0xd9, 0xb9,
  0x10, 0x63, 0x93, 0x39, 0x65, 0x14, 0xe1, 0xb7, 0x2e, 0x9f, 0xed, 0x39,
  0x9a, 0xa5, 0xe1, 0xb9, 0x08, 0xc3, 0x23, 0xb9, 0xea, 0xa8, 0x9f, 0x37,
  0x30, 0x6f, 0x0b, 0x37, 0x7a, 0x7d, 0xa1, 0x39, 0x7f, 0x3c, 0xe0, 0xb9,
  0xf0, 0x32, 0x44, 0xb9, 0xc2, 0xb8, 0x7c, 0xb8, 0x18, 0xcd, 0xde, 0xb9,
  0x6b, 0x38, 0x96, 0xb9, 0x03, 0x3a, 0x55, 0x39, 0xa5, 0x88, 0x9a, 0xb9,
  0x34, 0x3f, 0xe8, 0xb9, 0x24, 0x93, 0xf8, 0xb8, 0x05, 0xf4, 0x5c, 0x38,
  0xe2, 0xae, 0x75, 0xb9, 0xe7, 0x10, 0x03, 0xb9, 0x30, 0x71, 0x57, 0xb9,
  0x76, 0xdc, 0x98, 0xb9, 0x3d, 0x44, 0xc0, 0xb9, 0x8b, 0x60, 0x0d, 0xb9,
  0x3a, 0x33, 0xc3, 0xb9, 0x78, 0xf7, 0x7e, 0x38, 0x12, 0xc3, 0x4d, 0xb9,
  0x4d, 0x26, 0xba, 0x39, 0xa3, 0x83, 0xa6, 0xb9, 0x77, 0x74, 0xcb, 0x39,
  0x94, 0xfd, 0xb1, 0xb9, 0x84, 0xe3, 0x96, 0x38, 0xb0, 0xe5, 0xf0, 0xb9,
  0x56, 0x43, 0xf2, 0x39, 0xc4, 0x4a, 0x63, 0x39, 0x55, 0xb4, 0xdd, 0x39,
  0xb8, 0x76, 0x51, 0x38, 0x7e, 0x31, 0x4d, 0x39, 0x45, 0x08, 0x08, 0xb9,
  0x03, 0xd2, 0xeb, 0x39, 0xcc, 0x57, 0x95, 0xb8, 0xcf, 0x2d, 0xcf, 0x38,
  0x03, 0x62, 0xef, 0x39, 0xdc, 0x72, 0xc2, 0x39, 0xb2, 0xdc, 0xd4, 0xb8,
